unsigned char ae_uint8_tflite[] = {
  0x20, 0x00, 0x00, 0x00, 0x54, 0x46, 0x4c, 0x33, 0x00, 0x00, 0x00, 0x00,
  0x14, 0x00, 0x20, 0x00, 0x1c, 0x00, 0x18, 0x00, 0x14, 0x00, 0x10, 0x00,
  0x0c, 0x00, 0x00, 0x00, 0x08, 0x00, 0x04, 0x00, 0x14, 0x00, 0x00, 0x00,
  0x1c, 0x00, 0x00, 0x00, 0x94, 0x00, 0x00, 0x00, 0xec, 0x00, 0x00, 0x00,
  0x04, 0x22, 0x00, 0x00, 0x14, 0x22, 0x00, 0x00, 0xc8, 0x42, 0x00, 0x00,
  0x03, 0x00, 0x00, 0x00, 0x01, 0x00, 0x00, 0x00, 0x10, 0x00, 0x00, 0x00,
  0x00, 0x00, 0x0a, 0x00, 0x10, 0x00, 0x0c, 0x00, 0x08, 0x00, 0x04, 0x00,
  0x0a, 0x00, 0x00, 0x00, 0x0c, 0x00, 0x00, 0x00, 0x1c, 0x00, 0x00, 0x00,
  0x3c, 0x00, 0x00, 0x00, 0x0f, 0x00, 0x00, 0x00, 0x73, 0x65, 0x72, 0x76,
  0x69, 0x6e, 0x67, 0x5f, 0x64, 0x65, 0x66, 0x61, 0x75, 0x6c, 0x74, 0x00,
  0x01, 0x00, 0x00, 0x00, 0x04, 0x00, 0x00, 0x00, 0x94, 0xff, 0xff, 0xff,
  0x14, 0x00, 0x00, 0x00, 0x04, 0x00, 0x00, 0x00, 0x08, 0x00, 0x00, 0x00,
  0x6f, 0x75, 0x74, 0x70, 0x75, 0x74, 0x5f, 0x30, 0x00, 0x00, 0x00, 0x00,
  0x01, 0x00, 0x00, 0x00, 0x04, 0x00, 0x00, 0x00, 0xda, 0xde, 0xff, 0xff,
  0x04, 0x00, 0x00, 0x00, 0x0a, 0x00, 0x00, 0x00, 0x69, 0x6e, 0x70, 0x75,
  0x74, 0x5f, 0x66, 0x6c, 0x61, 0x74, 0x00, 0x00, 0x02, 0x00, 0x00, 0x00,
  0x34, 0x00, 0x00, 0x00, 0x04, 0x00, 0x00, 0x00, 0xdc, 0xff, 0xff, 0xff,
  0x17, 0x00, 0x00, 0x00, 0x04, 0x00, 0x00, 0x00, 0x13, 0x00, 0x00, 0x00,
  0x43, 0x4f, 0x4e, 0x56, 0x45, 0x52, 0x53, 0x49, 0x4f, 0x4e, 0x5f, 0x4d,
  0x45, 0x54, 0x41, 0x44, 0x41, 0x54, 0x41, 0x00, 0x08, 0x00, 0x0c, 0x00,
  0x08, 0x00, 0x04, 0x00, 0x08, 0x00, 0x00, 0x00, 0x16, 0x00, 0x00, 0x00,
  0x04, 0x00, 0x00, 0x00, 0x13, 0x00, 0x00, 0x00, 0x6d, 0x69, 0x6e, 0x5f,
  0x72, 0x75, 0x6e, 0x74, 0x69, 0x6d, 0x65, 0x5f, 0x76, 0x65, 0x72, 0x73,
  0x69, 0x6f, 0x6e, 0x00, 0x18, 0x00, 0x00, 0x00, 0x14, 0x21, 0x00, 0x00,
  0x0c, 0x21, 0x00, 0x00, 0xac, 0x20, 0x00, 0x00, 0x94, 0x1b, 0x00, 0x00,
  0x84, 0x1a, 0x00, 0x00, 0x74, 0x12, 0x00, 0x00, 0xe4, 0x11, 0x00, 0x00,
  0xd4, 0x10, 0x00, 0x00, 0xa4, 0x10, 0x00, 0x00, 0x94, 0x0f, 0x00, 0x00,
  0x04, 0x0f, 0x00, 0x00, 0xf4, 0x06, 0x00, 0x00, 0xe4, 0x05, 0x00, 0x00,
  0xd4, 0x00, 0x00, 0x00, 0xcc, 0x00, 0x00, 0x00, 0xc4, 0x00, 0x00, 0x00,
  0xbc, 0x00, 0x00, 0x00, 0xb4, 0x00, 0x00, 0x00, 0xac, 0x00, 0x00, 0x00,
  0xa4, 0x00, 0x00, 0x00, 0x9c, 0x00, 0x00, 0x00, 0x94, 0x00, 0x00, 0x00,
  0x74, 0x00, 0x00, 0x00, 0x04, 0x00, 0x00, 0x00, 0xb2, 0xdf, 0xff, 0xff,
  0x04, 0x00, 0x00, 0x00, 0x60, 0x00, 0x00, 0x00, 0x0c, 0x00, 0x00, 0x00,
  0x08, 0x00, 0x0e, 0x00, 0x08, 0x00, 0x04, 0x00, 0x08, 0x00, 0x00, 0x00,
  0x10, 0x00, 0x00, 0x00, 0x28, 0x00, 0x00, 0x00, 0x00, 0x00, 0x06, 0x00,
  0x08, 0x00, 0x04, 0x00, 0x06, 0x00, 0x00, 0x00, 0x04, 0x00, 0x00, 0x00,
  0x01, 0x00, 0x00, 0x00, 0xeb, 0x03, 0x00, 0x00, 0x0c, 0x00, 0x18, 0x00,
  0x14, 0x00, 0x10, 0x00, 0x0c, 0x00, 0x04, 0x00, 0x0c, 0x00, 0x00, 0x00,
  0xdd, 0x08, 0x59, 0x3c, 0x13, 0x14, 0xaa, 0x14, 0x02, 0x00, 0x00, 0x00,
  0x02, 0x00, 0x00, 0x00, 0x04, 0x00, 0x00, 0x00, 0x06, 0x00, 0x00, 0x00,
  0x32, 0x2e, 0x32, 0x30, 0x2e, 0x30, 0x00, 0x00, 0x1e, 0xe0, 0xff, 0xff,
  0x04, 0x00, 0x00, 0x00, 0x10, 0x00, 0x00, 0x00, 0x31, 0x2e, 0x31, 0x34,
  0x2e, 0x30, 0x00, 0x00, 0x00, 0x00, 0x00, 0x00, 0x00, 0x00, 0x00, 0x00,
  0x28, 0xdf, 0xff, 0xff, 0x2c, 0xdf, 0xff, 0xff, 0x30, 0xdf, 0xff, 0xff,
  0x34, 0xdf, 0xff, 0xff, 0x38, 0xdf, 0xff, 0xff, 0x3c, 0xdf, 0xff, 0xff,
  0x40, 0xdf, 0xff, 0xff, 0x44, 0xdf, 0xff, 0xff, 0x5a, 0xe0, 0xff, 0xff,
  0x04, 0x00, 0x00, 0x00, 0x00, 0x05, 0x00, 0x00, 0x54, 0x43, 0x09, 0xe6,
  0x7f, 0x04, 0x3f, 0xd6, 0xb7, 0xaa, 0xf1, 0x91, 0x6c, 0x5b, 0x72, 0x56,
  0x4b, 0x2f, 0x92, 0x95, 0x74, 0x0e, 0xa4, 0x07, 0xdc, 0x1a, 0x5f, 0x05,
  0xc2, 0x6e, 0x08, 0x09, 0xdf, 0xe0, 0x58, 0x2b, 0x7e, 0x81, 0xe0, 0xff,
  0x49, 0x7f, 0xfa, 0x57, 0x19, 0xcc, 0x17, 0x5e, 0xa3, 0xa4, 0x41, 0xd2,
  0xd0, 0x87, 0x84, 0x0e, 0xbf, 0xa9, 0x81, 0x2d, 0x3f, 0x65, 0x37, 0x98,
  0xf6, 0x9c, 0x34, 0xbf, 0x8e, 0x20, 0xca, 0x4d, 0xc4, 0x29, 0x81, 0x9d,
  0x0c, 0x05, 0x3a, 0x69, 0x7c, 0xb0, 0xfd, 0x0a, 0x11, 0x52, 0xce, 0xda,
  0xed, 0x2e, 0xfe, 0xcd, 0x7e, 0x3c, 0x64, 0xb0, 0xf2, 0xcd, 0x74, 0x7f,
  0x8b, 0x12, 0xcf, 0xd9, 0x30, 0xa4, 0xeb, 0xaa, 0x3f, 0xe7, 0x19, 0xa4,
  0x2e, 0x51, 0x30, 0x1c, 0x5c, 0x49, 0x56, 0x81, 0xd9, 0x2c, 0x10, 0xdb,
  0xb1, 0x7a, 0x5f, 0xa5, 0x0c, 0x32, 0x34, 0x44, 0x96, 0x81, 0x19, 0xf3,
  0x8e, 0x03, 0xed, 0xa0, 0xc4, 0x82, 0x71, 0x74, 0x09, 0xe4, 0x8e, 0x2b,
  0xad, 0xc4, 0x7f, 0xbb, 0xb8, 0x30, 0xd9, 0xe7, 0xd0, 0xe5, 0x2e, 0xa6,
  0xae, 0xca, 0x9c, 0xa1, 0x11, 0x2a, 0xad, 0x26, 0xd1, 0x8d, 0x57, 0xc6,
  0x84, 0x81, 0x21, 0xc5, 0xfe, 0xf7, 0x34, 0xa1, 0x37, 0xed, 0xd9, 0xbb,
  0x8d, 0x86, 0x22, 0xc1, 0xc2, 0x7f, 0xab, 0xd0, 0x61, 0xac, 0x93, 0x06,
  0x2f, 0xd1, 0x8a, 0x7b, 0x23, 0xd8, 0x7f, 0x4b, 0x98, 0x32, 0xa0, 0xe5,
  0xd4, 0x2b, 0xf9, 0x29, 0xa8, 0x61, 0x42, 0xa7, 0xf1, 0x11, 0x28, 0xa8,
  0x15, 0x72, 0xf3, 0x4c, 0xc2, 0xec, 0xb4, 0x2c, 0x6b, 0x7f, 0x38, 0x6d,
  0xe4, 0x07, 0xff, 0xe7, 0xb8, 0x71, 0xfc, 0x0b, 0x01, 0xe7, 0xbc, 0x46,
  0x96, 0xfa, 0xde, 0x59, 0x17, 0xf7, 0xae, 0x7f, 0xd6, 0xe2, 0x8f, 0x6a,
  0x24, 0xf7, 0xb5, 0x42, 0xab, 0x4f, 0x39, 0x6b, 0xe0, 0xf4, 0xfd, 0x7f,
  0xec, 0x7c, 0x4d, 0xce, 0x15, 0x06, 0x19, 0xf5, 0xfd, 0x41, 0x77, 0xb7,
  0x5b, 0xe2, 0xb5, 0x7f, 0xe5, 0x96, 0xc8, 0xb5, 0x10, 0xb0, 0xe0, 0x16,
  0xa4, 0x00, 0x07, 0x88, 0x1e, 0x64, 0xfe, 0x24, 0xce, 0x5a, 0xfe, 0x02,
  0xaa, 0xbc, 0x15, 0x59, 0x8e, 0x2a, 0x2f, 0xe5, 0x13, 0x3a, 0xf9, 0xf1,
  0xe0, 0x3e, 0x81, 0x8a, 0x36, 0xe1, 0x63, 0xca, 0xe9, 0xf9, 0x0b, 0x83,
  0x64, 0x4f, 0x2b, 0x37, 0x58, 0x29, 0xd4, 0xc4, 0x28, 0x4d, 0x81, 0x4f,
  0x22, 0x7f, 0xba, 0xf8, 0x20, 0x28, 0x9f, 0xda, 0x9b, 0x44, 0xa4, 0xea,
  0xf9, 0x4e, 0x92, 0x0a, 0x87, 0x62, 0x44, 0x23, 0xbc, 0x4a, 0xa2, 0x5a,
  0xa9, 0xd7, 0x77, 0xab, 0xfd, 0xeb, 0x8e, 0x3d, 0x22, 0x81, 0x8a, 0x1b,
  0x96, 0x31, 0xad, 0x61, 0x30, 0xda, 0xbe, 0x53, 0xb6, 0x49, 0x81, 0xfb,
  0xce, 0x4e, 0x71, 0x97, 0xfc, 0x61, 0xde, 0x96, 0x11, 0x73, 0x6b, 0x6a,
  0x89, 0xae, 0x81, 0xb6, 0xbd, 0xe5, 0xf6, 0x36, 0x75, 0x9f, 0xd1, 0xa6,
  0x3a, 0xff, 0xb1, 0x9a, 0x32, 0x50, 0xb0, 0x0f, 0x22, 0x24, 0xec, 0x3c,
  0x41, 0x23, 0x9b, 0x97, 0x07, 0x81, 0x0d, 0x8b, 0x60, 0x3f, 0x3a, 0x6c,
  0x52, 0x32, 0x66, 0xb3, 0x6d, 0xb4, 0x03, 0x54, 0xcf, 0x8e, 0x7a, 0xa6,
  0x3c, 0xc2, 0x53, 0x0d, 0x7f, 0x39, 0x46, 0xd8, 0xec, 0x47, 0x13, 0xcc,
  0x49, 0x59, 0xdd, 0xe4, 0xb2, 0x81, 0x62, 0xed, 0x2c, 0xf8, 0x35, 0x2d,
  0x63, 0xdf, 0x3d, 0xeb, 0xc5, 0x2b, 0x31, 0xfd, 0x3b, 0x0f, 0x5c, 0x25,
  0xd0, 0x72, 0x59, 0x5e, 0xa7, 0xc7, 0x6d, 0x7b, 0x64, 0x58, 0x5c, 0x6c,
  0x7f, 0x75, 0x7b, 0x08, 0x6b, 0x40, 0xb0, 0x6a, 0xa0, 0xf7, 0x77, 0xe4,
  0x3c, 0xe0, 0xbb, 0xbe, 0x97, 0x49, 0xce, 0x7f, 0xb3, 0x75, 0xff, 0xae,
  0x47, 0xd8, 0x98, 0xdb, 0x04, 0x8c, 0x7f, 0x58, 0x40, 0x18, 0x90, 0xdc,
  0x11, 0x9a, 0xc7, 0xb6, 0xb3, 0xf3, 0x0b, 0xac, 0x3f, 0xd9, 0xd0, 0xaf,
  0xaa, 0x8b, 0x81, 0xe8, 0x69, 0xdd, 0xd0, 0xee, 0x4f, 0x8d, 0xca, 0x76,
  0x46, 0x9b, 0x8f, 0x39, 0x4f, 0x36, 0xb5, 0x1d, 0xb6, 0x81, 0xbe, 0xa2,
  0x95, 0x8c, 0xc4, 0x3d, 0x51, 0x33, 0xa9, 0x8f, 0xb2, 0x8a, 0xc9, 0x37,
  0x9d, 0x94, 0x9a, 0x6f, 0xac, 0x73, 0x81, 0x45, 0xde, 0xdb, 0xe3, 0xcf,
  0xbe, 0xe4, 0xe0, 0x6f, 0x2e, 0x93, 0xe4, 0x61, 0x50, 0xe0, 0x56, 0x77,
  0xfe, 0x6b, 0xdf, 0x1a, 0xbd, 0x2a, 0x7f, 0x3d, 0x73, 0x17, 0xda, 0x49,
  0xaf, 0xc5, 0x40, 0xd6, 0x2e, 0xd0, 0xff, 0xff, 0xde, 0x15, 0x7f, 0xc4,
  0x93, 0x25, 0x35, 0x81, 0x35, 0x4c, 0xd0, 0x64, 0x7b, 0xe4, 0xcb, 0x6e,
  0x3b, 0xdb, 0x15, 0x5c, 0xe9, 0x54, 0x6f, 0xd1, 0x41, 0x4b, 0x76, 0xd5,
  0x7f, 0x41, 0xfd, 0x49, 0xba, 0x9b, 0xac, 0xa2, 0x52, 0xfe, 0x72, 0x70,
  0x7f, 0xa3, 0x65, 0x46, 0xd4, 0x6a, 0xa4, 0x9e, 0x69, 0xe2, 0x7a, 0xab,
  0x57, 0xe0, 0xe2, 0x76, 0x04, 0x38, 0x5c, 0xf5, 0x64, 0x91, 0x32, 0x32,
  0x0c, 0x42, 0xb8, 0x36, 0xa7, 0x56, 0x9c, 0x84, 0x81, 0x1e, 0x34, 0x86,
  0x40, 0xc7, 0x36, 0x81, 0x24, 0x00, 0x33, 0xf4, 0x65, 0x44, 0x1b, 0x42,
  0xef, 0x3d, 0x9f, 0x1f, 0x93, 0x8f, 0x8c, 0x22, 0x8e, 0x0b, 0xa2, 0xc3,
  0x41, 0xdb, 0xe8, 0x81, 0xc8, 0x8e, 0x3f, 0x86, 0x89, 0x21, 0x15, 0xae,
  0x1d, 0x61, 0x01, 0x54, 0x71, 0xf8, 0x5d, 0xb2, 0x66, 0xa4, 0xfe, 0x7d,
  0x15, 0x38, 0xce, 0x1b, 0x7f, 0xab, 0x1e, 0xe0, 0x4d, 0xc0, 0x67, 0xad,
  0xc5, 0x4c, 0x5c, 0xd2, 0x76, 0x3f, 0x63, 0x24, 0x88, 0xd5, 0xde, 0xe7,
  0x7f, 0x90, 0x4e, 0x5f, 0x7e, 0xeb, 0x76, 0xa1, 0x8f, 0xbd, 0x04, 0x60,
  0x56, 0x43, 0x59, 0xa0, 0xe6, 0xd5, 0x23, 0xc2, 0xe4, 0xf8, 0xb6, 0x2a,
  0x81, 0x2d, 0x14, 0x56, 0xd3, 0x05, 0x81, 0xf3, 0x33, 0x5a, 0x33, 0xdc,
  0x4c, 0xdb, 0xb2, 0x2f, 0x32, 0xc4, 0x65, 0xa5, 0x0f, 0xfc, 0x67, 0x0f,
  0x37, 0xf3, 0x12, 0x63, 0x61, 0x4a, 0x7f, 0xf7, 0x6d, 0xa9, 0x61, 0x45,
  0xee, 0x42, 0xa3, 0xca, 0x62, 0xfa, 0x08, 0xab, 0xa9, 0x54, 0x8b, 0x0b,
  0xf7, 0x56, 0x31, 0x42, 0xe4, 0x88, 0x2c, 0x1a, 0x96, 0xbf, 0x78, 0xab,
  0x10, 0xa9, 0x6a, 0x81, 0x73, 0xf4, 0xdf, 0xc7, 0x7f, 0x8a, 0x34, 0x64,
  0x61, 0x9c, 0xed, 0x65, 0xd5, 0xb7, 0x8d, 0x8c, 0xd0, 0x19, 0xb3, 0x17,
  0x8d, 0x71, 0xdd, 0xf3, 0x9f, 0x37, 0xe8, 0x9d, 0xb3, 0x56, 0xe9, 0x0f,
  0xdf, 0xf7, 0x96, 0x81, 0xef, 0x5d, 0x38, 0x4b, 0x32, 0xbd, 0xb0, 0x67,
  0xe9, 0x97, 0xe1, 0x2c, 0x1f, 0xdc, 0xaf, 0xcb, 0x8f, 0x24, 0xeb, 0x00,
  0x59, 0xad, 0x81, 0x52, 0x1f, 0xb1, 0xac, 0xbb, 0xa4, 0x7f, 0xaf, 0x09,
  0xd0, 0x26, 0xbb, 0xbf, 0xae, 0x1f, 0x36, 0x2e, 0x07, 0x11, 0xb2, 0x56,
  0x60, 0x2b, 0x88, 0x82, 0x32, 0xd1, 0x26, 0x10, 0x1f, 0xe3, 0xad, 0x82,
  0x6f, 0x55, 0x07, 0x06, 0x8a, 0x10, 0x81, 0xd6, 0xbe, 0xd3, 0xb4, 0xeb,
  0x9d, 0x36, 0xd6, 0xce, 0x5a, 0x66, 0xc3, 0x42, 0xac, 0xef, 0x8b, 0x6c,
  0x2e, 0xb2, 0x70, 0x81, 0x7f, 0xb7, 0x29, 0xac, 0x64, 0x9e, 0x37, 0x48,
  0x97, 0x1e, 0xb2, 0x0a, 0xbd, 0x8e, 0xef, 0x8b, 0x23, 0x73, 0x70, 0xd0,
  0x88, 0xf8, 0xf0, 0x6c, 0xa0, 0xaa, 0x9a, 0x7f, 0x88, 0xd5, 0xd0, 0xc1,
  0x8e, 0xcf, 0x7f, 0xf2, 0x15, 0x53, 0x30, 0x9d, 0xfa, 0xc6, 0xe1, 0xf0,
  0x0c, 0xc4, 0x0c, 0xde, 0x67, 0x31, 0x33, 0x6c, 0xbc, 0xd1, 0xca, 0x74,
  0x45, 0x32, 0xc9, 0x7f, 0xb1, 0x61, 0xc5, 0x07, 0x0c, 0xec, 0xad, 0x04,
  0xcd, 0xc4, 0x9f, 0xe5, 0xbb, 0x5f, 0x1e, 0x1d, 0x49, 0x00, 0x19, 0x7f,
  0x96, 0x33, 0x26, 0x9d, 0x71, 0x85, 0xdb, 0xdf, 0x77, 0x6c, 0x05, 0x8a,
  0xcd, 0x81, 0xd4, 0x90, 0x73, 0xd8, 0xa4, 0x0b, 0xea, 0x5c, 0xca, 0xb8,
  0x14, 0x40, 0x21, 0x8a, 0x5d, 0xfb, 0xc0, 0x16, 0xe3, 0x81, 0x93, 0x74,
  0xae, 0x38, 0xba, 0xd8, 0xd9, 0x61, 0x60, 0xfc, 0xe9, 0x5b, 0x30, 0x9a,
  0xe5, 0x45, 0x13, 0x04, 0x7f, 0x30, 0x8d, 0x56, 0xa6, 0xca, 0x04, 0x40,
  0x76, 0x7f, 0x0b, 0x4d, 0xb5, 0xa2, 0x7b, 0x28, 0x52, 0x22, 0xc2, 0x41,
  0xc0, 0x66, 0x67, 0x85, 0xf7, 0xc3, 0x06, 0xd3, 0x69, 0xca, 0xa8, 0xe9,
  0x69, 0x2d, 0xe8, 0x70, 0x08, 0x5d, 0xf0, 0x3d, 0xf7, 0x1b, 0xeb, 0xa2,
  0xb1, 0x65, 0x58, 0x7f, 0xb0, 0x3e, 0x7f, 0xb0, 0xad, 0xeb, 0xf3, 0x37,
  0xad, 0xbf, 0xf3, 0x53, 0xe5, 0x16, 0x47, 0x57, 0x5e, 0x66, 0x3f, 0x35,
  0xd4, 0x81, 0x5d, 0x55, 0xf1, 0x9c, 0x90, 0x40, 0x17, 0xbd, 0x09, 0xaf,
  0x95, 0xc4, 0xc2, 0xae, 0xa2, 0x11, 0x36, 0x46, 0xcc, 0xa0, 0xeb, 0x81,
  0xed, 0x09, 0x57, 0x35, 0x9c, 0xda, 0x20, 0x3c, 0xe1, 0xea, 0x02, 0x02,
  0x8d, 0xea, 0xbe, 0xe1, 0xbd, 0x36, 0x0f, 0x18, 0xef, 0x34, 0x2e, 0x32,
  0x81, 0x16, 0x9c, 0x27, 0xa4, 0x8d, 0x76, 0xbb, 0x0c, 0xa2, 0x9a, 0x4d,
  0x50, 0x02, 0x81, 0x02, 0x52, 0x87, 0xc1, 0x48, 0xc3, 0xaa, 0xe2, 0x71,
  0x86, 0xec, 0xc8, 0xe5, 0x2b, 0xcf, 0x99, 0xad, 0xdc, 0x81, 0xab, 0xdd,
  0xef, 0xc1, 0x4f, 0x4a, 0x26, 0x22, 0x9c, 0x2f, 0x50, 0x1b, 0xa1, 0x6a,
  0xe9, 0x2c, 0x10, 0xee, 0x66, 0xe5, 0xff, 0xff, 0x04, 0x00, 0x00, 0x00,
  0x00, 0x01, 0x00, 0x00, 0x08, 0x00, 0x00, 0x00, 0xfc, 0xff, 0xff, 0xff,
  0x00, 0x00, 0x00, 0x00, 0xcb, 0xff, 0xff, 0xff, 0x2d, 0x00, 0x00, 0x00,
  0xe5, 0xff, 0xff, 0xff, 0xf5, 0xff, 0xff, 0xff, 0x00, 0x00, 0x00, 0x00,
  0x00, 0x00, 0x00, 0x00, 0x00, 0x00, 0x00, 0x00, 0x0a, 0x00, 0x00, 0x00,
  0x2c, 0x00, 0x00, 0x00, 0xc0, 0xff, 0xff, 0xff, 0x2b, 0x00, 0x00, 0x00,
  0x00, 0x00, 0x00, 0x00, 0xd6, 0xff, 0xff, 0xff, 0x1d, 0x00, 0x00, 0x00,
  0xf1, 0xff, 0xff, 0xff, 0x00, 0x00, 0x00, 0x00, 0x0b, 0x00, 0x00, 0x00,
  0x00, 0x00, 0x00, 0x00, 0xe2, 0xff, 0xff, 0xff, 0x1e, 0x00, 0x00, 0x00,
  0xda, 0xff, 0xff, 0xff, 0x28, 0x00, 0x00, 0x00, 0x25, 0x00, 0x00, 0x00,
  0x00, 0x00, 0x00, 0x00, 0x00, 0x00, 0x00, 0x00, 0x00, 0x00, 0x00, 0x00,
  0xf5, 0xff, 0xff, 0xff, 0x2e, 0x00, 0x00, 0x00, 0xee, 0xff, 0xff, 0xff,
  0x21, 0x00, 0x00, 0x00, 0x20, 0x00, 0x00, 0x00, 0xda, 0xff, 0xff, 0xff,
  0xda, 0xff, 0xff, 0xff, 0x00, 0x00, 0x00, 0x00, 0x24, 0x00, 0x00, 0x00,
  0xec, 0xff, 0xff, 0xff, 0xc9, 0xff, 0xff, 0xff, 0xe8, 0xff, 0xff, 0xff,
  0x24, 0x00, 0x00, 0x00, 0xf5, 0xff, 0xff, 0xff, 0x00, 0x00, 0x00, 0x00,
  0xe9, 0xff, 0xff, 0xff, 0x00, 0x00, 0x00, 0x00, 0x00, 0x00, 0x00, 0x00,
  0x00, 0x00, 0x00, 0x00, 0x00, 0x00, 0x00, 0x00, 0x00, 0x00, 0x00, 0x00,
  0x00, 0x00, 0x00, 0x00, 0x0b, 0x00, 0x00, 0x00, 0x11, 0x00, 0x00, 0x00,
  0x00, 0x00, 0x00, 0x00, 0xea, 0xff, 0xff, 0xff, 0x29, 0x00, 0x00, 0x00,
  0x2f, 0x00, 0x00, 0x00, 0x2c, 0x00, 0x00, 0x00, 0x0e, 0x00, 0x00, 0x00,
  0x00, 0x00, 0x00, 0x00, 0x00, 0x00, 0x00, 0x00, 0x00, 0x00, 0x00, 0x00,
  0x00, 0x00, 0x00, 0x00, 0xcf, 0xff, 0xff, 0xff, 0x72, 0xe6, 0xff, 0xff,
  0x04, 0x00, 0x00, 0x00, 0x00, 0x08, 0x00, 0x00, 0xf5, 0x63, 0x35, 0xe4,
  0x4c, 0x02, 0x3b, 0x38, 0x46, 0xeb, 0x2f, 0x31, 0xbb, 0x27, 0xcf, 0x3e,
  0xbd, 0x87, 0xbd, 0xc0, 0xe9, 0x04, 0xc3, 0x6e, 0x33, 0xe0, 0xc9, 0x37,
  0x41, 0x19, 0xe3, 0x64, 0x31, 0x34, 0x22, 0xc8, 0x13, 0xd1, 0x04, 0xb7,
  0x74, 0xd5, 0x42, 0xb2, 0xb9, 0xa8, 0x05, 0xa3, 0xf0, 0x3a, 0xaf, 0xd2,
  0x81, 0x12, 0x34, 0xfe, 0x0f, 0xa3, 0xa5, 0x68, 0x2b, 0x94, 0xb8, 0x1f,
  0xf1, 0x07, 0xd6, 0xc7, 0x4c, 0xc7, 0xcc, 0x54, 0x28, 0xf7, 0x3e, 0x53,
  0x77, 0x2b, 0xf6, 0x1f, 0x1c, 0x46, 0x42, 0x48, 0x0f, 0x21, 0xaf, 0xe2,
  0x16, 0x5f, 0x2f, 0xe1, 0xc9, 0x2e, 0x2e, 0x06, 0xd7, 0xbe, 0xcb, 0xf8,
  0x29, 0x1c, 0x13, 0x5e, 0x11, 0xf5, 0x26, 0xe8, 0x23, 0xfd, 0xaa, 0xe7,
  0x3e, 0x51, 0xb7, 0x51, 0x7f, 0xcb, 0xd4, 0xd3, 0xc2, 0xe6, 0x02, 0xc0,
  0xff, 0xb6, 0x3b, 0x06, 0x22, 0x33, 0xfe, 0xc9, 0xa8, 0x4f, 0x33, 0xd3,
  0xb3, 0x5e, 0xcd, 0x6f, 0x64, 0xce, 0xe6, 0xc0, 0x2c, 0x7f, 0xdd, 0x0a,
  0x47, 0xd0, 0xfb, 0x9b, 0x30, 0x6e, 0x52, 0xfc, 0xb2, 0x9f, 0x05, 0x42,
  0x0a, 0x6b, 0x51, 0x25, 0x22, 0xc1, 0x42, 0xb4, 0x13, 0xd0, 0x48, 0x48,
  0xa9, 0x4e, 0x59, 0xd6, 0xbb, 0x9d, 0x57, 0x03, 0x28, 0xfa, 0xf2, 0xe1,
  0x70, 0x0e, 0xc3, 0x9d, 0x00, 0x4c, 0x52, 0xc9, 0xb6, 0x12, 0xa2, 0x03,
  0xd3, 0xc2, 0xeb, 0x42, 0x5a, 0xa4, 0xff, 0x4c, 0x7f, 0x2a, 0xee, 0xdd,
  0xeb, 0x3a, 0xde, 0x3f, 0xc2, 0xc4, 0x2a, 0x20, 0xb4, 0xdd, 0xe5, 0x2c,
  0xed, 0xd7, 0xb3, 0xbd, 0x25, 0x38, 0x2a, 0xe6, 0x20, 0xdc, 0xd9, 0x4c,
  0xa7, 0x49, 0x1a, 0xab, 0x25, 0x0f, 0x47, 0xb0, 0xf9, 0xf8, 0x49, 0x2b,
  0x3a, 0xa8, 0xe9, 0x12, 0x40, 0xc0, 0xf3, 0x56, 0x47, 0x3c, 0x59, 0xbe,
  0xfc, 0x46, 0x07, 0xbc, 0x31, 0x4f, 0xbc, 0xe5, 0xc4, 0x81, 0xbb, 0x78,
  0x0d, 0xcf, 0x7f, 0xf9, 0x81, 0xdf, 0x8d, 0x6e, 0xcb, 0x8f, 0x66, 0x33,
  0xd8, 0x07, 0x18, 0x47, 0xb2, 0x77, 0x33, 0x24, 0xe3, 0xa2, 0xef, 0x32,
  0x53, 0x78, 0x45, 0x67, 0xf8, 0x57, 0x60, 0x20, 0x72, 0xcb, 0x4a, 0x92,
  0xe5, 0x83, 0x94, 0x94, 0xa7, 0xf6, 0xab, 0xa2, 0x99, 0xd6, 0x92, 0x62,
  0xe1, 0x69, 0xa2, 0x25, 0xbd, 0x12, 0x2d, 0x21, 0x86, 0xc7, 0xdd, 0x9e,
  0x51, 0xfa, 0xa2, 0x81, 0x95, 0xa7, 0xe0, 0x61, 0x42, 0xcc, 0x3e, 0x57,
  0x75, 0x08, 0x59, 0x12, 0xee, 0xee, 0x94, 0x50, 0x48, 0xd3, 0x3f, 0x32,
  0x48, 0xfd, 0x4c, 0x5f, 0xae, 0x57, 0xdc, 0x0a, 0x65, 0x93, 0x2c, 0x68,
  0xe2, 0xaa, 0x8f, 0x5c, 0x53, 0xdc, 0x12, 0x01, 0xb0, 0x18, 0xc6, 0x24,
  0x14, 0xfe, 0x62, 0x35, 0x3c, 0xb1, 0x8b, 0x30, 0xc6, 0x19, 0xfc, 0xea,
  0xee, 0x01, 0xbd, 0xb6, 0xc0, 0xf4, 0xa3, 0x2d, 0x3e, 0x63, 0x62, 0xeb,
  0xad, 0x7f, 0xed, 0x35, 0xe9, 0xd4, 0xb2, 0xaf, 0x38, 0xc9, 0xab, 0xed,
  0x35, 0x1e, 0xb0, 0xcf, 0x3f, 0xb6, 0x68, 0x2c, 0xca, 0x2f, 0xee, 0x1b,
  0x51, 0x33, 0x9d, 0x3f, 0x1a, 0xf3, 0xd8, 0x4b, 0x32, 0xe0, 0xe1, 0xdf,
  0xcd, 0xed, 0x56, 0xec, 0xdd, 0xd0, 0x18, 0xf2, 0xcc, 0xfd, 0x2d, 0xb1,
  0x57, 0x3b, 0xbc, 0x1d, 0x81, 0x00, 0x91, 0x8f, 0xb5, 0xc4, 0x65, 0x43,
  0xf2, 0x8c, 0xe9, 0xf6, 0xbd, 0x75, 0x47, 0xa2, 0x07, 0xc8, 0x5c, 0x35,
  0xd6, 0x75, 0x40, 0x48, 0x98, 0x46, 0xe6, 0xe8, 0x21, 0xe2, 0x62, 0xf4,
  0x6c, 0x93, 0xc2, 0xe2, 0xc9, 0xb2, 0x2e, 0x7d, 0x00, 0x9a, 0x67, 0x0c,
  0x10, 0x81, 0x7c, 0x0b, 0x10, 0xf0, 0xef, 0xf9, 0x5c, 0x2f, 0x6b, 0x78,
  0x7c, 0xb9, 0x48, 0x97, 0x00, 0xf0, 0x49, 0xa0, 0x3a, 0x3c, 0x17, 0x34,
  0xeb, 0xd5, 0x48, 0xe5, 0x6d, 0x06, 0xc6, 0x39, 0x7d, 0x1e, 0xda, 0x7f,
  0x55, 0x99, 0x0a, 0xff, 0x62, 0x08, 0xd0, 0xd9, 0x2b, 0x04, 0x72, 0x00,
  0x5d, 0x28, 0xa1, 0x09, 0xbf, 0x66, 0xdf, 0xd8, 0xa3, 0x56, 0xdd, 0xbb,
  0x9f, 0xfe, 0x3d, 0x22, 0xc8, 0x45, 0xeb, 0x71, 0x45, 0x0f, 0xd6, 0x79,
  0x65, 0xfe, 0x48, 0xb8, 0x2a, 0xf5, 0x95, 0xf0, 0x0d, 0xa8, 0x5c, 0xe6,
  0xf3, 0xfa, 0x9a, 0xfe, 0x3d, 0xa4, 0xc9, 0x44, 0xa1, 0x49, 0x38, 0x5f,
  0x15, 0x1d, 0x0a, 0xdc, 0x08, 0x25, 0x4d, 0x21, 0x3d, 0xeb, 0xbd, 0xbb,
  0xc0, 0xe6, 0x6b, 0xd4, 0x17, 0xd1, 0x81, 0x6a, 0x94, 0xe6, 0x2a, 0x99,
  0x50, 0xfe, 0xdc, 0xb0, 0x23, 0xcc, 0x74, 0x74, 0xfb, 0x4c, 0x45, 0x1e,
  0xe4, 0x0e, 0x5e, 0x2b, 0xb0, 0xdb, 0xf7, 0xc8, 0x9a, 0x2e, 0xcc, 0x36,
  0x69, 0xcc, 0xdb, 0x2d, 0xed, 0x3a, 0xe2, 0xe5, 0x1f, 0x88, 0x3e, 0x74,
  0xec, 0x7c, 0xf8, 0xcd, 0x4a, 0x02, 0x43, 0x27, 0xc1, 0x45, 0x01, 0xbf,
  0x66, 0xfe, 0x33, 0xed, 0x72, 0x15, 0xff, 0x75, 0x13, 0xd3, 0x16, 0x75,
  0xdf, 0x7f, 0xef, 0xcd, 0xef, 0x15, 0x25, 0x3a, 0x98, 0x90, 0xe0, 0x89,
  0xe4, 0xa9, 0x65, 0xf3, 0x6d, 0x27, 0x90, 0x5f, 0xd9, 0xf5, 0xb0, 0xcb,
  0x66, 0x33, 0x16, 0xbb, 0xc3, 0x94, 0x75, 0xa5, 0xe1, 0xd4, 0x50, 0x1c,
  0x81, 0xf2, 0xd9, 0x30, 0x76, 0x20, 0xcb, 0x19, 0x0d, 0x8b, 0xd3, 0xec,
  0xe4, 0x6a, 0x96, 0x5c, 0xfa, 0x36, 0x32, 0x2e, 0x57, 0x7a, 0xc1, 0x5d,
  0xfe, 0x8e, 0xe3, 0x5b, 0xfc, 0x94, 0xdc, 0x10, 0x1a, 0xbb, 0x35, 0x12,
  0x36, 0xaf, 0x0c, 0x43, 0xde, 0x63, 0x7c, 0x4f, 0x33, 0xc7, 0xf3, 0x61,
  0x8c, 0xb9, 0x88, 0xf9, 0x07, 0x7d, 0x91, 0xfd, 0xf5, 0x8c, 0xe7, 0x0f,
  0x7f, 0x70, 0xc4, 0x48, 0x56, 0xb7, 0x72, 0x57, 0x2e, 0x1e, 0xaf, 0x90,
  0x09, 0x26, 0xfd, 0x16, 0xf4, 0x49, 0xdf, 0xc1, 0xf7, 0x3a, 0x98, 0x61,
  0xae, 0xcc, 0xb9, 0xd5, 0xbd, 0xaa, 0x99, 0x0f, 0x1f, 0xd5, 0x86, 0xb2,
  0xf1, 0xac, 0x10, 0x25, 0x1d, 0xb2, 0x88, 0xc5, 0xe3, 0x26, 0x92, 0x47,
  0x84, 0xed, 0xa9, 0x89, 0x28, 0xc9, 0xfe, 0x7c, 0xda, 0x94, 0xed, 0x9f,
  0xc6, 0x10, 0x49, 0xd3, 0x50, 0xa9, 0x00, 0x6f, 0xf3, 0x13, 0x16, 0x2e,
  0xae, 0xbf, 0x9a, 0xcb, 0x2f, 0x81, 0x65, 0xe0, 0x3f, 0x58, 0x50, 0xcf,
  0x74, 0x71, 0x41, 0x56, 0x9c, 0x09, 0x61, 0x19, 0xb5, 0x6f, 0x01, 0x5c,
  0x5c, 0x42, 0xe2, 0x5f, 0xe9, 0x24, 0xcf, 0xdf, 0xd0, 0xe1, 0x23, 0xb0,
  0x59, 0x0b, 0xea, 0xc7, 0xf5, 0x9c, 0xde, 0x64, 0x64, 0x5b, 0x71, 0xbf,
  0xda, 0x15, 0xf4, 0xeb, 0x54, 0x49, 0xc3, 0x49, 0x14, 0xca, 0xd8, 0x9e,
  0x5a, 0x35, 0x99, 0x04, 0x81, 0x26, 0x0b, 0x54, 0xfe, 0x87, 0x15, 0x43,
  0xfd, 0x69, 0x09, 0xaf, 0xb6, 0xaa, 0x18, 0xa0, 0x53, 0xcf, 0x37, 0x18,
  0xfe, 0x39, 0xf6, 0x1c, 0xf8, 0x7e, 0x21, 0xbd, 0x2a, 0xfb, 0xdb, 0x2b,
  0xee, 0xa6, 0x44, 0xd0, 0xd6, 0xb3, 0x59, 0xfb, 0xfc, 0xbd, 0x24, 0x04,
  0x34, 0x2d, 0x26, 0xbd, 0x49, 0x4a, 0x57, 0x38, 0xac, 0x48, 0x48, 0x92,
  0x89, 0xff, 0xb3, 0xcd, 0x5b, 0xa2, 0xa5, 0xcc, 0xac, 0xf1, 0xc2, 0x0f,
  0xd2, 0xf5, 0x95, 0xa8, 0xe0, 0x9f, 0x61, 0x26, 0xea, 0xae, 0xd9, 0x9b,
  0xc2, 0x2d, 0x79, 0x88, 0xd0, 0xd7, 0x8a, 0x7f, 0x23, 0xf3, 0x70, 0x7d,
  0x8e, 0xa4, 0x27, 0x4d, 0x4d, 0x67, 0x2a, 0xac, 0xe2, 0x43, 0xf2, 0x9b,
  0x24, 0x39, 0x57, 0xd9, 0x22, 0x48, 0x24, 0x79, 0xd1, 0x83, 0x34, 0x2a,
  0xc4, 0x9e, 0x68, 0x10, 0x95, 0xad, 0x6f, 0x83, 0x7a, 0xed, 0x44, 0x1f,
  0x0a, 0x8e, 0x5e, 0x53, 0xee, 0xfa, 0xb4, 0x8b, 0x42, 0xfd, 0xbb, 0xe5,
  0xed, 0x60, 0x88, 0x54, 0xf1, 0x24, 0x34, 0x54, 0x7f, 0x14, 0xc4, 0x87,
  0xe9, 0x2c, 0x16, 0x83, 0x1c, 0x8d, 0x45, 0x1a, 0x83, 0x54, 0xa5, 0x2e,
  0x6a, 0x3f, 0xb4, 0x10, 0x09, 0x66, 0x8f, 0x5b, 0x85, 0x78, 0xcc, 0x91,
  0x11, 0x29, 0xa8, 0xe0, 0x91, 0x5a, 0x96, 0xdb, 0xeb, 0x92, 0x18, 0x18,
  0x4a, 0x90, 0xf7, 0x94, 0xee, 0xe3, 0x34, 0xa0, 0xb8, 0x30, 0xa2, 0x4b,
  0x7e, 0x35, 0x5a, 0xb4, 0x06, 0xb6, 0x6d, 0x10, 0xfa, 0x2b, 0x44, 0xa9,
  0x89, 0xea, 0xe6, 0x9c, 0x46, 0x46, 0xfb, 0x76, 0x72, 0x77, 0xaa, 0xb3,
  0x81, 0xca, 0x64, 0xf2, 0x94, 0x71, 0x67, 0xa3, 0xad, 0xc0, 0xcb, 0xd1,
  0xff, 0x03, 0xc3, 0xf2, 0x9f, 0x6a, 0x5b, 0xb9, 0x24, 0x85, 0xa9, 0xbb,
  0xbd, 0x3f, 0x2f, 0x05, 0xd6, 0x34, 0xa5, 0x06, 0x46, 0x49, 0x10, 0x5b,
  0xfc, 0x6a, 0xb2, 0x46, 0xb1, 0xcb, 0x68, 0xae, 0xa9, 0x9b, 0x43, 0xde,
  0xa8, 0xd1, 0x48, 0x96, 0x22, 0x81, 0xdf, 0xee, 0x8d, 0x17, 0x68, 0xec,
  0x01, 0xe3, 0x03, 0x6e, 0x35, 0xec, 0xe2, 0x76, 0x57, 0xf0, 0xca, 0xe9,
  0x33, 0x0e, 0xd1, 0x9f, 0x11, 0xdc, 0x50, 0x6b, 0x11, 0xde, 0x4a, 0x6f,
  0xf7, 0xcd, 0x52, 0xd2, 0xee, 0x70, 0x14, 0xbe, 0x9d, 0x29, 0x81, 0x5d,
  0x47, 0xd4, 0x66, 0x1d, 0xc9, 0xeb, 0x69, 0xa2, 0x82, 0xf1, 0x72, 0x13,
  0xdc, 0x86, 0x39, 0xe0, 0x64, 0xc0, 0x9e, 0x46, 0x41, 0x39, 0xcc, 0xa4,
  0x62, 0x91, 0x49, 0xc6, 0x3b, 0x56, 0xb9, 0xa4, 0x3f, 0xef, 0x39, 0xa1,
  0x9c, 0x82, 0x5b, 0xde, 0xce, 0x60, 0x53, 0xae, 0xab, 0xc6, 0x61, 0xd7,
  0x76, 0xcc, 0xd9, 0xa3, 0x21, 0x23, 0x41, 0x2c, 0xfb, 0xbb, 0x36, 0xcc,
  0xf5, 0x1f, 0xb1, 0xf3, 0x81, 0x4e, 0x07, 0xfc, 0x34, 0x08, 0x19, 0x46,
  0xea, 0xf7, 0x42, 0x35, 0x4f, 0xcc, 0xf7, 0x39, 0xf8, 0xbb, 0x49, 0x14,
  0x1b, 0xed, 0xc7, 0xe0, 0xea, 0x3f, 0xfc, 0xd6, 0xfa, 0x04, 0x44, 0xc9,
  0x41, 0xcf, 0xe1, 0xdf, 0xce, 0x35, 0x49, 0x24, 0xfd, 0xdf, 0xc5, 0xc7,
  0xc1, 0xeb, 0xde, 0x1c, 0xec, 0x3d, 0xff, 0xfa, 0xe4, 0x51, 0x33, 0x51,
  0x44, 0xcb, 0x6f, 0x39, 0x95, 0xcf, 0xcb, 0xb6, 0x7f, 0xa2, 0xbf, 0xea,
  0x25, 0x5f, 0x00, 0x6b, 0xd6, 0xb3, 0xf1, 0x02, 0x46, 0xb7, 0xf2, 0xf9,
  0xda, 0x4d, 0x4d, 0xfd, 0x43, 0x57, 0x51, 0x58, 0x00, 0xbb, 0xae, 0xf9,
  0xc7, 0x63, 0x99, 0x03, 0x60, 0x2f, 0x5e, 0x39, 0xd3, 0xf8, 0xac, 0xda,
  0x74, 0x31, 0xab, 0x1b, 0x4f, 0xe9, 0x5e, 0xcb, 0xe2, 0xe9, 0xce, 0x66,
  0xeb, 0x05, 0xaf, 0x4e, 0xb1, 0x03, 0x74, 0xa3, 0x75, 0x2a, 0x26, 0x88,
  0xc8, 0x9b, 0x8d, 0x98, 0x84, 0x8f, 0x00, 0xd5, 0x7e, 0xc3, 0xd0, 0x04,
  0x7b, 0xe6, 0x47, 0x6e, 0x9e, 0x8d, 0xb4, 0x2a, 0x26, 0xc6, 0x6b, 0x81,
  0x5d, 0x4b, 0x0a, 0x03, 0xdb, 0xab, 0x9d, 0xd2, 0x37, 0x67, 0x69, 0x87,
  0xf3, 0x24, 0x66, 0x46, 0x70, 0x5a, 0xd3, 0xb9, 0xef, 0xf9, 0xc2, 0x36,
  0xdb, 0x05, 0xfe, 0xbf, 0xf0, 0x0d, 0x58, 0xf4, 0xc7, 0xe4, 0xff, 0x40,
  0x05, 0xcb, 0x23, 0x73, 0x25, 0x7c, 0xdd, 0xa1, 0xe3, 0xc7, 0x45, 0xb9,
  0xae, 0xae, 0x70, 0xdf, 0x4b, 0x66, 0xaa, 0xec, 0xdf, 0xba, 0xd7, 0xd1,
  0x7f, 0xac, 0x08, 0xd4, 0x70, 0x29, 0x5a, 0x3b, 0x1f, 0xfe, 0x90, 0x91,
  0xad, 0xe3, 0x3e, 0xed, 0xdf, 0xcf, 0x58, 0x46, 0x7f, 0x70, 0xa7, 0x33,
  0xb2, 0x27, 0x6f, 0xbb, 0x4a, 0xe1, 0x1d, 0xb1, 0x9f, 0xf2, 0x1c, 0x87,
  0xdb, 0x34, 0x6b, 0xb0, 0xc9, 0x32, 0x07, 0xa9, 0x2d, 0x4d, 0x55, 0x51,
  0x75, 0x00, 0x58, 0x40, 0x46, 0x77, 0xeb, 0x23, 0xe5, 0x18, 0x87, 0x82,
  0xc0, 0xde, 0xe4, 0xfe, 0x99, 0x0f, 0x9f, 0xa7, 0xb7, 0x85, 0x39, 0x81,
  0xf6, 0xf7, 0x48, 0xae, 0x6d, 0x26, 0x1e, 0xd9, 0x8f, 0xd4, 0x68, 0x05,
  0x6f, 0x70, 0xd5, 0xbc, 0x55, 0xd1, 0x93, 0x14, 0x67, 0x75, 0xd3, 0x6d,
  0x33, 0x93, 0xdb, 0xee, 0xbc, 0x73, 0x0e, 0xd2, 0xbf, 0xec, 0x26, 0xd5,
  0xe3, 0xf7, 0x00, 0x1b, 0x06, 0x81, 0xab, 0xf4, 0x40, 0x50, 0x5f, 0x76,
  0xfd, 0x77, 0x2d, 0xb9, 0x1f, 0x19, 0xee, 0x8c, 0xea, 0xd0, 0x4a, 0x24,
  0x1a, 0xef, 0xf5, 0xb5, 0xc7, 0x25, 0x18, 0xfd, 0xf1, 0xf4, 0xbb, 0x9d,
  0x5e, 0x55, 0x38, 0x07, 0xa0, 0x12, 0x19, 0x57, 0x8e, 0x03, 0x87, 0x6e,
  0x3c, 0x39, 0x49, 0x13, 0x07, 0xd0, 0x65, 0x04, 0x42, 0x0e, 0x8f, 0x2b,
  0x33, 0xe8, 0x6c, 0xc6, 0x33, 0x85, 0x98, 0xc2, 0xaf, 0x24, 0x37, 0xeb,
  0xd6, 0x53, 0x67, 0xc2, 0x08, 0xf7, 0x92, 0x13, 0xbd, 0x5c, 0xf9, 0xa5,
  0x41, 0xd2, 0xf3, 0xbc, 0x5b, 0x23, 0x85, 0x9d, 0x00, 0xa5, 0x92, 0x03,
  0x7f, 0x85, 0x8d, 0xa9, 0x3d, 0x3b, 0x65, 0x39, 0x5a, 0xe5, 0xde, 0xcc,
  0xa9, 0x62, 0x17, 0x3f, 0xbc, 0x10, 0x8a, 0x66, 0xf5, 0xe8, 0xfb, 0xf1,
  0x37, 0x30, 0xd3, 0xba, 0xb6, 0x56, 0x6f, 0xe8, 0x04, 0x64, 0x57, 0x61,
  0x81, 0xd1, 0x46, 0x55, 0xf6, 0x65, 0x99, 0x1b, 0x21, 0x99, 0xbf, 0x14,
  0x50, 0x0b, 0xbc, 0xb8, 0x43, 0xa4, 0xbe, 0x24, 0xa6, 0x10, 0x00, 0x09,
  0x9f, 0x58, 0x52, 0x92, 0xd7, 0xec, 0xbb, 0x37, 0x63, 0x22, 0x01, 0xa7,
  0xaa, 0x19, 0xb0, 0x20, 0xc4, 0x8a, 0xe1, 0x8a, 0xb7, 0xd1, 0x27, 0xf9,
  0xcd, 0xb1, 0xd3, 0xde, 0x10, 0xdd, 0x03, 0x2f, 0xa6, 0x4a, 0x81, 0xfe,
  0xd3, 0x48, 0xd6, 0xd5, 0xc5, 0xdc, 0xdd, 0x57, 0xbe, 0xc3, 0xf8, 0xe0,
  0x4f, 0x54, 0x25, 0xb0, 0x31, 0x1d, 0x08, 0xb9, 0x64, 0x39, 0x5d, 0x10,
  0x3a, 0x11, 0x04, 0xd1, 0x3c, 0x52, 0xf9, 0x36, 0xbf, 0xb4, 0x07, 0xad,
  0x3a, 0xc3, 0xf2, 0xb7, 0x8f, 0x26, 0xea, 0x22, 0x52, 0x1a, 0x2d, 0xa6,
  0xa3, 0x0e, 0x33, 0xd6, 0x5f, 0x25, 0x5c, 0x61, 0xd6, 0xd5, 0xa7, 0xef,
  0xe1, 0xf4, 0x34, 0x07, 0x23, 0x51, 0x2a, 0x8b, 0x43, 0xc9, 0x7c, 0x2e,
  0xd1, 0xb3, 0xc6, 0xa0, 0x92, 0x3e, 0x7a, 0x67, 0x1e, 0x91, 0xb1, 0xcc,
  0x31, 0x49, 0x81, 0xc4, 0x3a, 0x6d, 0xe4, 0xeb, 0xae, 0x6e, 0x4b, 0x1b,
  0x58, 0xd7, 0x5a, 0x36, 0xc7, 0x75, 0xb9, 0x5b, 0x06, 0x2e, 0x1a, 0xfe,
  0xd3, 0xfc, 0xad, 0x0c, 0xc1, 0x75, 0xed, 0xc4, 0x1a, 0xb7, 0x4a, 0x7f,
  0x45, 0x93, 0x9f, 0xd6, 0x73, 0xa2, 0x0e, 0x67, 0x0f, 0xe7, 0x68, 0xd8,
  0xce, 0xb3, 0x12, 0x55, 0xa3, 0x1e, 0xc6, 0xae, 0x3e, 0x16, 0xdb, 0x64,
  0x3f, 0x0c, 0x66, 0xa5, 0x5b, 0xd9, 0xfb, 0xbc, 0x11, 0x99, 0x13, 0x9b,
  0xdc, 0x25, 0x5d, 0x34, 0xa8, 0x55, 0x9b, 0xde, 0x37, 0x9e, 0x51, 0xaf,
  0x79, 0xf9, 0x13, 0x9d, 0x12, 0x33, 0x02, 0x23, 0x22, 0x3f, 0xd6, 0xed,
  0xfd, 0x22, 0x93, 0xb5, 0x16, 0xba, 0x2d, 0xd4, 0x08, 0xea, 0x51, 0x83,
  0x3f, 0x6c, 0xe9, 0x5e, 0xf6, 0xa8, 0x76, 0xab, 0xe0, 0xa8, 0x25, 0x87,
  0x65, 0x9c, 0x35, 0xb3, 0xf1, 0x8d, 0xae, 0x85, 0x81, 0xcb, 0x55, 0x67,
  0x0e, 0x92, 0xcb, 0x88, 0x8f, 0x4d, 0x43, 0xb5, 0xc1, 0x71, 0x27, 0xd6,
  0x04, 0xe2, 0xc5, 0x3e, 0x36, 0x51, 0x44, 0xdf, 0x36, 0x8a, 0x43, 0x6a,
  0x27, 0x58, 0x4d, 0x66, 0x7e, 0xee, 0xff, 0xff, 0x04, 0x00, 0x00, 0x00,
  0x80, 0x00, 0x00, 0x00, 0x1d, 0x00, 0x00, 0x00, 0x0e, 0x00, 0x00, 0x00,
  0x06, 0x00, 0x00, 0x00, 0xfd, 0xff, 0xff, 0xff, 0x00, 0x00, 0x00, 0x00,
  0xe3, 0xff, 0xff, 0xff, 0xfe, 0xff, 0xff, 0xff, 0xf7, 0xff, 0xff, 0xff,
  0x15, 0x00, 0x00, 0x00, 0xf4, 0xff, 0xff, 0xff, 0x1a, 0x00, 0x00, 0x00,
  0xf8, 0xff, 0xff, 0xff, 0x00, 0x00, 0x00, 0x00, 0x18, 0x00, 0x00, 0x00,
  0x11, 0x00, 0x00, 0x00, 0x00, 0x00, 0x00, 0x00, 0x00, 0x00, 0x00, 0x00,
  0x00, 0x00, 0x00, 0x00, 0xee, 0xff, 0xff, 0xff, 0xf0, 0xff, 0xff, 0xff,
  0x0f, 0x00, 0x00, 0x00, 0x03, 0x00, 0x00, 0x00, 0x00, 0x00, 0x00, 0x00,
  0x19, 0x00, 0x00, 0x00, 0xf6, 0xff, 0xff, 0xff, 0xf9, 0xff, 0xff, 0xff,
  0x00, 0x00, 0x00, 0x00, 0xef, 0xff, 0xff, 0xff, 0x17, 0x00, 0x00, 0x00,
  0xf3, 0xff, 0xff, 0xff, 0x15, 0x00, 0x00, 0x00, 0xef, 0xff, 0xff, 0xff,
  0x0a, 0xef, 0xff, 0xff, 0x04, 0x00, 0x00, 0x00, 0x00, 0x01, 0x00, 0x00,
  0x3e, 0x68, 0xbe, 0x7f, 0x08, 0x8a, 0x22, 0x5c, 0xce, 0xff, 0x7d, 0xbe,
  0xff, 0xfb, 0xeb, 0xea, 0xc1, 0x3c, 0x1c, 0xe7, 0xc1, 0x93, 0xb1, 0x6c,
  0x24, 0x73, 0xea, 0x79, 0xe8, 0x00, 0x8d, 0xb7, 0x6f, 0xe7, 0xe0, 0x15,
  0x25, 0xb6, 0xdd, 0xea, 0x11, 0x32, 0x4e, 0x03, 0x1a, 0x61, 0x7f, 0xcf,
  0x0d, 0xac, 0xe9, 0x3b, 0x4d, 0xd9, 0x21, 0x54, 0xb7, 0xdf, 0x91, 0xa8,
  0x6c, 0x72, 0x17, 0xaf, 0x28, 0x79, 0xce, 0x7f, 0xbe, 0x3d, 0xf6, 0xc2,
  0x97, 0x85, 0xdc, 0xbb, 0x5e, 0xbe, 0x17, 0x28, 0xd3, 0xd2, 0xf2, 0x9c,
  0x30, 0x47, 0x2b, 0x2e, 0x77, 0xc7, 0x99, 0x79, 0xc6, 0x73, 0x9b, 0xa1,
  0xc3, 0x8a, 0x06, 0x3b, 0x85, 0x98, 0x14, 0xf6, 0xbe, 0x4b, 0x3d, 0x6b,
  0x2e, 0xc1, 0x47, 0xbf, 0x7f, 0xc7, 0xbd, 0x88, 0x7b, 0xb0, 0xfc, 0x3a,
  0xf9, 0xd7, 0xa5, 0xf2, 0xa8, 0x18, 0x61, 0x14, 0xfc, 0x95, 0x24, 0x3f,
  0x5d, 0xbe, 0x27, 0x8e, 0xc9, 0xb7, 0x3a, 0x5a, 0xe6, 0x2f, 0x7f, 0xb1,
  0x00, 0xd8, 0x3a, 0xdf, 0xcd, 0xc2, 0x99, 0xe0, 0x6b, 0xb6, 0x97, 0x43,
  0xd0, 0x2c, 0xe6, 0xb8, 0x1d, 0x7f, 0x70, 0xb3, 0x33, 0x90, 0x33, 0x41,
  0xcb, 0x23, 0x4b, 0x5c, 0xa7, 0x27, 0x50, 0x27, 0xed, 0xfc, 0x53, 0x00,
  0xac, 0xb7, 0xbf, 0x6f, 0x6c, 0x00, 0x40, 0xa9, 0xa9, 0xd0, 0xfe, 0xae,
  0xf9, 0x7e, 0x35, 0x50, 0x9c, 0xb2, 0x6a, 0x1f, 0x7f, 0xaf, 0x19, 0xbd,
  0xf6, 0x62, 0xb6, 0x03, 0xf1, 0x73, 0x71, 0xb0, 0x7b, 0x42, 0x45, 0x60,
  0x28, 0xbf, 0xe2, 0x92, 0x19, 0xf9, 0x24, 0xde, 0xe7, 0x07, 0xf8, 0xff,
  0x6b, 0x77, 0x98, 0xa5, 0xb3, 0x87, 0x20, 0x0b, 0xea, 0x7f, 0x12, 0x52,
  0xbf, 0x7e, 0x0e, 0x72, 0x85, 0x2c, 0xec, 0x30, 0xcd, 0x7f, 0xca, 0xe1,
  0x8f, 0x0f, 0xc2, 0x7f, 0x16, 0xf0, 0xff, 0xff, 0x04, 0x00, 0x00, 0x00,
  0x20, 0x00, 0x00, 0x00, 0xfd, 0xff, 0xff, 0xff, 0x17, 0x00, 0x00, 0x00,
  0x00, 0x00, 0x00, 0x00, 0xf8, 0xff, 0xff, 0xff, 0x00, 0x00, 0x00, 0x00,
  0x09, 0x00, 0x00, 0x00, 0x11, 0x00, 0x00, 0x00, 0xfb, 0xff, 0xff, 0xff,
  0x42, 0xf0, 0xff, 0xff, 0x04, 0x00, 0x00, 0x00, 0x00, 0x01, 0x00, 0x00,
  0x10, 0xb5, 0x7f, 0xd7, 0x1c, 0x51, 0x05, 0xbf, 0x70, 0x3e, 0xa3, 0x62,
  0xdf, 0x44, 0x7f, 0xbb, 0x7f, 0x38, 0x12, 0x73, 0xd0, 0x7b, 0x46, 0xd5,
  0x2d, 0x18, 0x7f, 0x27, 0x0f, 0x94, 0x0b, 0xe4, 0x0c, 0x1f, 0x3c, 0xa7,
  0x81, 0xaf, 0x4c, 0x8a, 0x7f, 0x37, 0x6c, 0x5b, 0x50, 0x3b, 0xf4, 0x13,
  0x7f, 0x16, 0x12, 0x34, 0x6f, 0xfb, 0x9d, 0xad, 0xde, 0x81, 0x58, 0x9b,
  0xee, 0x66, 0x66, 0x87, 0xa4, 0x8e, 0x2c, 0xd2, 0xf0, 0x95, 0xa7, 0x81,
  0x68, 0x7f, 0x3c, 0x08, 0xb3, 0xe4, 0xd4, 0xf3, 0xa7, 0x8d, 0x81, 0x05,
  0x32, 0x4d, 0xbc, 0xd7, 0x3a, 0x50, 0xdc, 0x02, 0x27, 0xd7, 0x81, 0x18,
  0x5f, 0xb2, 0x8e, 0x7f, 0x82, 0x11, 0x16, 0xde, 0xdc, 0xe6, 0x81, 0xab,
  0xd7, 0x07, 0x40, 0x49, 0x7f, 0x7f, 0xc5, 0x40, 0x13, 0xf8, 0xee, 0x3b,
  0xef, 0xd3, 0x4c, 0x62, 0x69, 0x03, 0x04, 0x81, 0x72, 0xd1, 0x81, 0x1a,
  0x3a, 0xff, 0x3e, 0x17, 0x7f, 0x50, 0x49, 0x2c, 0x58, 0x29, 0x99, 0xdf,
  0x35, 0x9a, 0x9d, 0x7f, 0x19, 0x82, 0x36, 0x3c, 0x6d, 0x04, 0xf1, 0x98,
  0x7f, 0x0d, 0x7f, 0x78, 0x28, 0xb6, 0x14, 0x81, 0x89, 0x94, 0xd0, 0xf4,
  0x69, 0xe0, 0x81, 0xef, 0xcd, 0xc7, 0xd0, 0x0d, 0xee, 0x9c, 0x81, 0xb6,
  0xeb, 0x18, 0x5a, 0x5e, 0xec, 0xb7, 0x33, 0x7f, 0xff, 0x76, 0x7a, 0x97,
  0x4d, 0x7a, 0xd0, 0x81, 0x78, 0x16, 0x40, 0x59, 0xaf, 0x7f, 0x46, 0xb1,
  0x27, 0x0e, 0xe6, 0xd0, 0xaa, 0x26, 0xa5, 0x7f, 0x6d, 0x95, 0x5c, 0x73,
  0xd0, 0xf7, 0x3c, 0x5e, 0x8e, 0x55, 0x7f, 0x52, 0x33, 0xcd, 0x38, 0x81,
  0x0c, 0xf8, 0x04, 0xd9, 0x81, 0x26, 0x77, 0xce, 0x93, 0xf5, 0x20, 0x37,
  0x10, 0x05, 0x37, 0x7f, 0x55, 0x19, 0xb6, 0xc0, 0x52, 0x75, 0x3c, 0x4f,
  0x81, 0x1b, 0x68, 0x57, 0x4e, 0xf1, 0xff, 0xff, 0x04, 0x00, 0x00, 0x00,
  0x80, 0x00, 0x00, 0x00, 0x00, 0x00, 0x00, 0x00, 0x13, 0x00, 0x00, 0x00,
  0x12, 0x00, 0x00, 0x00, 0x14, 0x00, 0x00, 0x00, 0x09, 0x00, 0x00, 0x00,
  0xf7, 0xff, 0xff, 0xff, 0xfc, 0xff, 0xff, 0xff, 0xf0, 0xff, 0xff, 0xff,
  0x00, 0x00, 0x00, 0x00, 0xfd, 0xff, 0xff, 0xff, 0x00, 0x00, 0x00, 0x00,
  0x07, 0x00, 0x00, 0x00, 0x00, 0x00, 0x00, 0x00, 0xdf, 0xff, 0xff, 0xff,
  0xfc, 0xff, 0xff, 0xff, 0x00, 0x00, 0x00, 0x00, 0x08, 0x00, 0x00, 0x00,
  0x09, 0x00, 0x00, 0x00, 0x00, 0x00, 0x00, 0x00, 0x0c, 0x00, 0x00, 0x00,
  0x00, 0x00, 0x00, 0x00, 0xfd, 0xff, 0xff, 0xff, 0xe5, 0xff, 0xff, 0xff,
  0xf9, 0xff, 0xff, 0xff, 0x05, 0x00, 0x00, 0x00, 0x15, 0x00, 0x00, 0x00,
  0x0c, 0x00, 0x00, 0x00, 0x12, 0x00, 0x00, 0x00, 0x00, 0x00, 0x00, 0x00,
  0x11, 0x00, 0x00, 0x00, 0xfd, 0xff, 0xff, 0xff, 0xec, 0xff, 0xff, 0xff,
  0xda, 0xf1, 0xff, 0xff, 0x04, 0x00, 0x00, 0x00, 0x00, 0x08, 0x00, 0x00,
  0xb7, 0x2a, 0xac, 0xdc, 0x18, 0x33, 0x81, 0x77, 0xc4, 0xaa, 0x73, 0x87,
  0xe1, 0x32, 0x0b, 0x67, 0x83, 0xdf, 0xb9, 0x52, 0xf1, 0x10, 0x5f, 0x3e,
  0x94, 0xdd, 0x35, 0xa5, 0xe8, 0xe2, 0x03, 0x8c, 0xfe, 0x7b, 0x0f, 0x30,
  0x32, 0xed, 0x76, 0x7f, 0x8f, 0x07, 0xa1, 0x1d, 0x2e, 0x2a, 0x8a, 0xb7,
  0xdc, 0xdc, 0xba, 0xd8, 0x17, 0x35, 0x44, 0xb8, 0x0e, 0xb0, 0xd9, 0x0c,
  0x9a, 0x45, 0x98, 0x0c, 0xd0, 0x10, 0x77, 0xd3, 0x97, 0x05, 0x7a, 0xb0,
  0x90, 0xd5, 0x7f, 0x31, 0x9b, 0xfd, 0x14, 0xa1, 0xb5, 0x7a, 0x6a, 0x72,
  0x79, 0x86, 0xf8, 0x3f, 0x87, 0xa8, 0x30, 0xd8, 0x09, 0x91, 0x2b, 0xa1,
  0xb2, 0x89, 0x22, 0xa4, 0x05, 0x8b, 0x69, 0xda, 0xb9, 0xce, 0x57, 0x99,
  0x8d, 0xa8, 0xe0, 0xaf, 0xfa, 0xda, 0xb0, 0xb1, 0x83, 0x0a, 0xa1, 0x81,
  0x63, 0xeb, 0xbc, 0x2f, 0x27, 0x97, 0x22, 0xda, 0x5c, 0x4d, 0xb8, 0x13,
  0xc2, 0x9f, 0x7b, 0x95, 0x74, 0x90, 0x58, 0x24, 0x44, 0xcc, 0x81, 0x26,
  0x8f, 0xa6, 0xd4, 0xe7, 0xfc, 0xec, 0xa1, 0x1b, 0x6d, 0x06, 0x6a, 0x16,
  0x59, 0xd7, 0xfa, 0xd9, 0x47, 0xbc, 0x8c, 0x58, 0xc2, 0x41, 0x35, 0xad,
  0x82, 0x27, 0x2e, 0x7f, 0xbc, 0xc0, 0x6a, 0x5c, 0x78, 0x16, 0xcc, 0x89,
  0x76, 0xea, 0x05, 0x5d, 0x04, 0xb1, 0x33, 0xbc, 0x54, 0x2d, 0x98, 0x9f,
  0x9f, 0x51, 0x8a, 0x1e, 0x15, 0xe6, 0xd0, 0xd4, 0x17, 0xd7, 0x56, 0x09,
  0x18, 0xe3, 0xc6, 0x2e, 0xe9, 0x2c, 0xcf, 0x5f, 0x3e, 0xb9, 0x13, 0x70,
  0xaf, 0xdd, 0xb8, 0x84, 0x05, 0xca, 0x81, 0x9e, 0x7e, 0x8a, 0xc6, 0x73,
  0x44, 0x76, 0xd7, 0x96, 0x81, 0xe7, 0x34, 0x4a, 0x91, 0xfa, 0x85, 0x88,
  0xbc, 0x99, 0x93, 0x5b, 0x1c, 0xde, 0x38, 0xa2, 0x88, 0xce, 0x49, 0x67,
  0x25, 0x4a, 0x26, 0x24, 0xc8, 0x41, 0xe9, 0x47, 0x81, 0xcf, 0x6f, 0x8d,
  0xcf, 0x02, 0x59, 0x0c, 0xc4, 0x0a, 0x94, 0x79, 0xd5, 0xdb, 0x3a, 0x5a,
  0x46, 0x40, 0xef, 0x7a, 0x32, 0xbd, 0xc6, 0x9c, 0x03, 0x92, 0x0c, 0xe0,
  0x3c, 0x40, 0x7f, 0xd1, 0x77, 0x27, 0x73, 0x95, 0x01, 0xec, 0x1e, 0x33,
  0x00, 0xa9, 0xc5, 0xdb, 0x0b, 0x67, 0xe3, 0x6d, 0x6c, 0x62, 0xc5, 0x23,
  0xb9, 0x78, 0x73, 0x5c, 0x72, 0x17, 0xad, 0x0e, 0x07, 0x69, 0x2e, 0x53,
  0x42, 0x36, 0x68, 0xd9, 0x81, 0xe5, 0x2b, 0x05, 0x3e, 0x93, 0xeb, 0x03,
  0x40, 0x6f, 0x35, 0x5b, 0x7f, 0x95, 0x61, 0x05, 0xee, 0x5f, 0x4b, 0xd4,
  0xfb, 0x92, 0x8f, 0x2e, 0x9e, 0x63, 0x7f, 0x0a, 0xe2, 0x15, 0x35, 0xe2,
  0x27, 0xcf, 0x04, 0x35, 0xd9, 0xb0, 0x3e, 0x08, 0x49, 0x3b, 0x7c, 0x11,
  0x72, 0xdf, 0x67, 0x01, 0xf1, 0xae, 0x46, 0x7a, 0x32, 0x47, 0x7d, 0xa4,
  0xb7, 0x09, 0xe3, 0x45, 0xef, 0x2b, 0xf2, 0x81, 0x45, 0x1f, 0x13, 0xd9,
  0x13, 0xed, 0x1f, 0x19, 0x2b, 0x1f, 0x33, 0x4c, 0xb5, 0x3b, 0x38, 0xef,
  0x1e, 0x0a, 0xd1, 0x3a, 0xd1, 0xfd, 0x01, 0x28, 0x18, 0x3e, 0x21, 0x0b,
  0x33, 0xed, 0x3c, 0x69, 0xce, 0xa5, 0x14, 0xca, 0x70, 0xf3, 0x7f, 0xca,
  0xc6, 0xe8, 0x52, 0x22, 0x04, 0xbb, 0x20, 0x67, 0x7a, 0xeb, 0x64, 0xd4,
  0x66, 0x1c, 0x31, 0x72, 0xe1, 0x64, 0x3a, 0xc8, 0x42, 0x68, 0x99, 0xda,
  0x95, 0xcf, 0x4f, 0x19, 0xe7, 0x4f, 0x7f, 0x43, 0x37, 0x50, 0x19, 0xa1,
  0x4f, 0x33, 0xe1, 0x3c, 0xcb, 0x21, 0xbc, 0x57, 0x33, 0xc0, 0x07, 0xda,
  0xfb, 0x31, 0x92, 0x76, 0x86, 0xe0, 0x81, 0x42, 0x29, 0xd2, 0x90, 0xae,
  0xc8, 0xb2, 0x6b, 0xc6, 0xa1, 0x32, 0xa8, 0x07, 0xc1, 0x1f, 0x12, 0x86,
  0x37, 0x31, 0x21, 0xfc, 0xa0, 0x6a, 0x07, 0xea, 0xd0, 0x5c, 0x5f, 0xd3,
  0x73, 0x66, 0xc7, 0xb9, 0x1c, 0x93, 0x67, 0x39, 0x8a, 0x2a, 0x33, 0xf1,
  0x3a, 0x8a, 0x42, 0x84, 0x7f, 0x0b, 0xfb, 0x84, 0xc3, 0xb7, 0x93, 0xc5,
  0xbe, 0xba, 0x32, 0x51, 0x1c, 0x31, 0x1b, 0x47, 0x2d, 0xfe, 0x6b, 0x65,
  0xbe, 0xc8, 0x2d, 0x38, 0xeb, 0x99, 0xa3, 0x8f, 0x4f, 0x55, 0xa3, 0x6c,
  0x90, 0x51, 0xaf, 0x0b, 0xa9, 0x9d, 0x15, 0x33, 0xa7, 0x7f, 0xf3, 0x93,
  0xf5, 0xc6, 0x49, 0x8f, 0x10, 0x9b, 0x92, 0x40, 0x7f, 0x0b, 0xc6, 0x1d,
  0xe0, 0xbc, 0xfb, 0xbf, 0xda, 0xc2, 0x85, 0xf3, 0xfc, 0xa2, 0x71, 0x8a,
  0x03, 0x08, 0xec, 0x8c, 0x4e, 0x3f, 0xe0, 0x52, 0xc8, 0xfe, 0xe2, 0xb9,
  0x03, 0x0d, 0x2e, 0xc5, 0x7f, 0xa5, 0xd7, 0x4f, 0xec, 0xe1, 0xb7, 0xaa,
  0x68, 0x90, 0x8b, 0xfe, 0xcc, 0x23, 0xb4, 0xef, 0xbd, 0x68, 0x4a, 0xfa,
  0xda, 0x1a, 0x88, 0xa9, 0xcf, 0x7f, 0xab, 0x1b, 0x49, 0x98, 0x4b, 0x25,
  0x62, 0xff, 0x12, 0xdd, 0x42, 0x44, 0xbb, 0xe4, 0x63, 0x28, 0x50, 0x22,
  0x77, 0x6b, 0xe6, 0xb1, 0xb7, 0x70, 0x5c, 0x78, 0x2b, 0x6e, 0x47, 0x22,
  0x43, 0xc7, 0xe6, 0xda, 0x83, 0x3d, 0x4d, 0x4c, 0xf0, 0xb3, 0x40, 0xbe,
  0xae, 0x9e, 0x3b, 0xc3, 0xe3, 0xd1, 0xaf, 0x5e, 0x4c, 0x1b, 0x64, 0x81,
  0x19, 0xe3, 0x58, 0xe2, 0x22, 0x85, 0x94, 0x6c, 0x65, 0x6a, 0xae, 0x12,
  0x81, 0x21, 0x05, 0xb0, 0x59, 0xa6, 0x93, 0xdf, 0x11, 0xec, 0x4c, 0x92,
  0x0a, 0x49, 0x39, 0x41, 0x1a, 0x60, 0x8b, 0xbb, 0x14, 0x6e, 0x02, 0x8a,
  0x4a, 0x86, 0x4e, 0x11, 0x68, 0x07, 0x20, 0xa4, 0x95, 0xce, 0x1a, 0x53,
  0xc9, 0x7f, 0x8e, 0x36, 0x87, 0xcc, 0xdb, 0xc9, 0xa0, 0x99, 0xb9, 0xa8,
  0xa4, 0x8f, 0x2b, 0x71, 0xa2, 0x94, 0xf1, 0x18, 0x32, 0xd3, 0x9f, 0x8e,
  0xfc, 0xf0, 0x04, 0x3d, 0x20, 0x55, 0xc1, 0xa7, 0x2a, 0xd9, 0x37, 0xf1,
  0xaa, 0x7a, 0xbd, 0x99, 0xa3, 0x52, 0x7b, 0x7e, 0x74, 0xbd, 0x29, 0xca,
  0x7f, 0xb2, 0x66, 0xf3, 0x87, 0x1e, 0x82, 0x04, 0x63, 0x77, 0x4d, 0x32,
  0xc6, 0xdb, 0x50, 0xae, 0x15, 0x5f, 0xa3, 0xc7, 0x14, 0xfc, 0x7e, 0xbd,
  0x11, 0xb0, 0x3b, 0xd3, 0x38, 0x63, 0xa5, 0xc0, 0x03, 0xc7, 0x86, 0xe0,
  0xf2, 0x81, 0x98, 0x46, 0x60, 0xdc, 0x81, 0xd7, 0x2c, 0x50, 0x41, 0x67,
  0xe5, 0x48, 0x98, 0x41, 0x1b, 0x25, 0xd1, 0x84, 0x79, 0x6e, 0x4f, 0x08,
  0xc6, 0x61, 0x3f, 0x97, 0x91, 0x39, 0x49, 0xc4, 0xaa, 0x1d, 0x08, 0xec,
  0x3e, 0xee, 0x17, 0xbc, 0x1e, 0x4e, 0xde, 0x42, 0x32, 0xb7, 0xd1, 0x99,
  0x12, 0xd6, 0x6b, 0x03, 0x0e, 0x2e, 0x13, 0x15, 0xb0, 0x16, 0x17, 0x0b,
  0x81, 0x33, 0x3f, 0x88, 0x37, 0xcd, 0xa9, 0x1b, 0xaa, 0xca, 0xc2, 0xb8,
  0xc8, 0x01, 0xcd, 0xd8, 0x45, 0x7b, 0x66, 0xdf, 0xb1, 0x37, 0xbc, 0x45,
  0x35, 0x33, 0x81, 0xb4, 0x67, 0xf4, 0x3a, 0xe9, 0x81, 0xd1, 0x02, 0xc7,
  0x30, 0x37, 0x8c, 0x47, 0xb0, 0x67, 0x04, 0xcf, 0xce, 0x06, 0x25, 0x62,
  0xd2, 0x19, 0xba, 0x45, 0xfe, 0x07, 0x46, 0x7b, 0xa3, 0xdc, 0x2b, 0x71,
  0xaa, 0x04, 0x26, 0xc9, 0x2c, 0x2f, 0x4f, 0xf9, 0x74, 0x81, 0x26, 0xca,
  0x9a, 0x7f, 0x4d, 0x95, 0xc8, 0x7f, 0xf8, 0x0b, 0x60, 0x7d, 0x9b, 0xf3,
  0x2e, 0x9e, 0xf2, 0xb9, 0x7c, 0xfa, 0x6f, 0xea, 0xf7, 0x13, 0x02, 0xa6,
  0x68, 0x25, 0x30, 0x95, 0xd5, 0x23, 0xc7, 0x04, 0xb6, 0xb0, 0x18, 0x95,
  0x49, 0xa5, 0xb2, 0x85, 0x22, 0xbe, 0x0e, 0xf6, 0xb2, 0x9e, 0xdf, 0xa2,
  0x58, 0x81, 0x8f, 0x2e, 0x70, 0x5b, 0x43, 0x85, 0x00, 0xea, 0x2a, 0xf1,
  0xeb, 0xf8, 0xd1, 0x5c, 0x8f, 0x11, 0x3b, 0xcb, 0xd7, 0x9f, 0x7f, 0x08,
  0x36, 0x29, 0x16, 0x94, 0x46, 0x88, 0x94, 0x1e, 0x4a, 0xf8, 0xbc, 0x14,
  0xab, 0xeb, 0x9e, 0xdf, 0xf4, 0x4b, 0x4e, 0xb2, 0xd4, 0x3f, 0x91, 0xc0,
  0x4b, 0xbe, 0xa2, 0x37, 0x66, 0xf6, 0x76, 0x3f, 0x42, 0x81, 0x4d, 0xe6,
  0x66, 0x55, 0xdd, 0x77, 0x22, 0xd0, 0x4f, 0x66, 0xb6, 0x92, 0x58, 0xbf,
  0x29, 0x38, 0xf7, 0xd0, 0xa5, 0xa2, 0x79, 0xbc, 0xb8, 0xbd, 0x57, 0x5e,
  0x78, 0x24, 0xa9, 0x6d, 0x8a, 0x7c, 0x4e, 0x7b, 0x28, 0x1a, 0x63, 0x59,
  0xf2, 0xcc, 0x26, 0xc0, 0x28, 0x0a, 0xc6, 0x3c, 0xe8, 0x2e, 0x7f, 0x04,
  0xd4, 0x3c, 0x04, 0x74, 0x72, 0xf1, 0x11, 0x83, 0xee, 0x91, 0x86, 0xb7,
  0xb0, 0x81, 0x22, 0xb0, 0x28, 0x7a, 0xbd, 0x65, 0xcc, 0x0b, 0xe1, 0x6b,
  0x43, 0x68, 0x88, 0xc8, 0x65, 0x17, 0xba, 0xcf, 0xa6, 0x14, 0xe3, 0xd7,
  0xcd, 0xa2, 0xb8, 0x78, 0xe2, 0xe9, 0xaa, 0xde, 0xdd, 0x7f, 0xb9, 0xdf,
  0x02, 0xe7, 0xcb, 0xce, 0xf4, 0x70, 0x88, 0xa2, 0x26, 0x21, 0x98, 0xc1,
  0xc7, 0xb1, 0xe5, 0x3b, 0x0a, 0xad, 0xf1, 0xbd, 0xbe, 0xde, 0xbc, 0xb7,
  0xb3, 0x9e, 0xfd, 0xa4, 0xa6, 0x39, 0xc8, 0x1a, 0x9e, 0xf4, 0x7b, 0xc1,
  0x10, 0x6f, 0xf0, 0xbc, 0x37, 0x77, 0x00, 0xd3, 0xe7, 0x34, 0x67, 0xd1,
  0xec, 0xaa, 0x20, 0x7f, 0x49, 0xd9, 0x43, 0x1a, 0x2b, 0x55, 0x18, 0xce,
  0xb5, 0xa8, 0x57, 0xcc, 0x3d, 0x37, 0x43, 0xb2, 0xe1, 0x58, 0xa5, 0x3a,
  0x32, 0x63, 0xc5, 0xbe, 0x46, 0x18, 0x85, 0xbd, 0x15, 0x81, 0x14, 0xd2,
  0xfa, 0xbf, 0x22, 0xbd, 0xb3, 0x76, 0xa3, 0x2e, 0x81, 0xe4, 0x79, 0xdb,
  0xe6, 0xa3, 0x6e, 0x3a, 0xc3, 0x7e, 0x71, 0xee, 0xd4, 0x61, 0x22, 0x3c,
  0xc9, 0x4b, 0xba, 0x17, 0x03, 0x74, 0x4c, 0x87, 0x25, 0x68, 0x7f, 0x1d,
  0xe4, 0x0b, 0x66, 0x17, 0xee, 0xf7, 0xc4, 0xc2, 0x00, 0xc7, 0x3c, 0x33,
  0x32, 0x00, 0x41, 0xf2, 0xea, 0x45, 0x69, 0xb1, 0x4f, 0x33, 0x1b, 0x3a,
  0xf3, 0xc3, 0xf9, 0xcf, 0x1c, 0x14, 0x81, 0x88, 0x3c, 0x86, 0xf1, 0xd4,
  0xc3, 0xb5, 0x0f, 0xed, 0xa0, 0x53, 0x5a, 0x68, 0xeb, 0xdf, 0x59, 0x34,
  0x9f, 0x62, 0x56, 0xd7, 0x4a, 0xec, 0x2b, 0xca, 0x25, 0xe1, 0xaf, 0xb7,
  0xe2, 0xb9, 0xff, 0xe0, 0x81, 0xaf, 0xc8, 0xc3, 0x56, 0xda, 0x51, 0x9c,
  0x24, 0xc5, 0x09, 0xc1, 0xf7, 0x2f, 0x73, 0x32, 0x6e, 0x35, 0x09, 0x42,
  0xc6, 0x36, 0x81, 0x87, 0x01, 0xce, 0x91, 0xba, 0x6d, 0xd2, 0x1c, 0x6d,
  0xf6, 0x84, 0xd8, 0xbc, 0xf2, 0x78, 0x58, 0xed, 0x28, 0x58, 0xdf, 0xa1,
  0x2a, 0x94, 0x22, 0xf6, 0xdf, 0x90, 0x29, 0xc3, 0xe8, 0x1a, 0x1a, 0xd2,
  0x39, 0x7f, 0x7b, 0x9f, 0xb6, 0xfc, 0x04, 0x1c, 0x5a, 0xa3, 0x68, 0xb8,
  0xf2, 0xa3, 0x96, 0xb2, 0x92, 0x7f, 0x59, 0xb6, 0x26, 0xdf, 0x00, 0x6c,
  0xf2, 0x0c, 0xcc, 0xa4, 0x2a, 0x5a, 0xad, 0x32, 0x32, 0xff, 0x94, 0x05,
  0xbf, 0x06, 0xfd, 0x71, 0x12, 0xd3, 0x36, 0x59, 0xb7, 0x10, 0xc8, 0xdb,
  0x78, 0xde, 0x33, 0x07, 0x21, 0x70, 0x15, 0x8f, 0x67, 0x11, 0xb9, 0xfd,
  0x81, 0xef, 0x04, 0xec, 0xba, 0x49, 0x15, 0x66, 0x4c, 0x59, 0x5f, 0xd7,
  0x29, 0x57, 0x1e, 0x81, 0xae, 0xdb, 0xe7, 0xee, 0xb0, 0xd9, 0x32, 0xdd,
  0x1c, 0x1a, 0x3b, 0xf3, 0xa2, 0x5f, 0x18, 0xe4, 0x41, 0xca, 0xc6, 0xab,
  0x49, 0x58, 0x3b, 0x0a, 0x27, 0x05, 0x79, 0x3a, 0xfa, 0xfe, 0x2f, 0xc0,
  0x03, 0xe6, 0xb4, 0x35, 0x81, 0x87, 0xd2, 0x24, 0x88, 0x5e, 0xfd, 0xd5,
  0x7d, 0x9c, 0x23, 0xba, 0xb7, 0x4c, 0x7a, 0x14, 0x8e, 0xf2, 0x23, 0xf4,
  0x9e, 0x37, 0xc5, 0x79, 0x73, 0xbe, 0x2b, 0xa6, 0x9e, 0x21, 0xfc, 0x66,
  0x0c, 0x16, 0x08, 0xbe, 0xb9, 0xe9, 0xc6, 0xd9, 0x7f, 0x88, 0xd3, 0xec,
  0x23, 0x21, 0xc6, 0x38, 0x86, 0x78, 0x87, 0x60, 0xae, 0x7f, 0x29, 0xd7,
  0x8b, 0x0b, 0x7f, 0x5c, 0x9e, 0x03, 0x41, 0xf2, 0x83, 0x0d, 0x9f, 0x42,
  0x71, 0x9e, 0x74, 0xbf, 0x43, 0xf3, 0x17, 0x6b, 0x59, 0x34, 0xb4, 0xd3,
  0xf3, 0x2d, 0x85, 0x89, 0x48, 0x43, 0x02, 0x0a, 0xf8, 0xb2, 0x63, 0x61,
  0x9b, 0xf5, 0x1a, 0x51, 0xdd, 0xd1, 0x0a, 0x3e, 0xab, 0x6f, 0xe5, 0x7f,
  0x24, 0x05, 0x76, 0xd5, 0x50, 0x7e, 0x76, 0x29, 0x95, 0xed, 0xf9, 0xb4,
  0x18, 0xde, 0x1c, 0x81, 0x19, 0x13, 0x01, 0x6b, 0x1d, 0xb3, 0xee, 0x45,
  0x14, 0x36, 0xe4, 0xc1, 0x44, 0x3c, 0xfc, 0xdf, 0xd0, 0x38, 0x78, 0x23,
  0xf6, 0xf8, 0xf6, 0x55, 0xcc, 0xbd, 0xe5, 0x2e, 0xac, 0xaa, 0xc7, 0x2a,
  0x91, 0x4a, 0x22, 0x29, 0xe6, 0x63, 0xe0, 0x0e, 0xdc, 0x81, 0x8d, 0x39,
  0xd3, 0x40, 0x9c, 0x35, 0x03, 0x01, 0x06, 0xde, 0xfd, 0x08, 0xb6, 0xc9,
  0xce, 0x74, 0xd2, 0xa2, 0xaa, 0x79, 0xce, 0xe7, 0x11, 0x56, 0x9d, 0x9c,
  0x41, 0x97, 0x32, 0x16, 0x02, 0x6e, 0x9a, 0x9e, 0x7f, 0x46, 0x0e, 0x8e,
  0x36, 0xf8, 0x19, 0x63, 0xc3, 0xb2, 0xaa, 0x93, 0xf1, 0x43, 0x4e, 0x71,
  0x2c, 0x5a, 0x30, 0x2b, 0xfc, 0x58, 0x4a, 0x81, 0xdb, 0x40, 0xe0, 0xa9,
  0xaf, 0xe4, 0x5b, 0x41, 0xf2, 0xde, 0x25, 0xc0, 0xae, 0xe7, 0xee, 0x45,
  0x38, 0x43, 0xef, 0xfe, 0xd7, 0xd1, 0xf9, 0x2d, 0xc0, 0x1b, 0xa8, 0x4e,
  0x0e, 0xd9, 0x18, 0x57, 0x38, 0x66, 0x49, 0x58, 0xeb, 0x23, 0x07, 0xf7,
  0x46, 0xfe, 0x6b, 0x34, 0x4a, 0x09, 0xbb, 0xbe, 0xc8, 0x7f, 0x98, 0x89,
  0xe3, 0x4f, 0x29, 0x95, 0x81, 0x59, 0x99, 0x0a, 0x5c, 0x1c, 0x48, 0xd7,
  0x68, 0xe0, 0x6e, 0x88, 0xe5, 0xcf, 0x00, 0xa2, 0x23, 0x89, 0x3e, 0x9e,
  0x97, 0x5d, 0xe0, 0xd4, 0x8e, 0xb6, 0x22, 0x1a, 0x1c, 0x6d, 0x46, 0xd9,
  0x7c, 0x11, 0x92, 0xde, 0xa1, 0x6d, 0x81, 0xce, 0xcb, 0xfd, 0xba, 0x8a,
  0x36, 0x89, 0x64, 0x11, 0x64, 0x24, 0x70, 0xda, 0x9a, 0x3f, 0x53, 0x4b,
  0xc2, 0xaa, 0xca, 0x68, 0x57, 0xce, 0x92, 0x42, 0x15, 0x4e, 0x8e, 0x67,
  0x46, 0x33, 0xb2, 0xbb, 0x47, 0x87, 0xae, 0x4c, 0xb8, 0x33, 0xa1, 0x69,
  0x73, 0xa1, 0x54, 0x5f, 0xea, 0x60, 0x4d, 0x3d, 0x81, 0xd7, 0x21, 0xfd,
  0xb2, 0xc6, 0x60, 0xd0, 0xed, 0x35, 0xf4, 0xf0, 0xb3, 0xaf, 0xdc, 0xae,
  0x53, 0xab, 0xf0, 0xf2, 0xee, 0xf2, 0xce, 0xfa, 0x68, 0x45, 0xb0, 0x6f,
  0xf6, 0xf1, 0xb4, 0xde, 0x6b, 0x7f, 0xe5, 0x24, 0x35, 0x26, 0x51, 0x7d,
  0xd6, 0x90, 0x3c, 0xf8, 0x2e, 0x1e, 0x85, 0x1b, 0x7e, 0x2f, 0x62, 0x09,
  0x54, 0xc4, 0x81, 0x8b, 0x8b, 0x72, 0xad, 0x99, 0x9b, 0x18, 0xd1, 0x78,
  0xbf, 0x3c, 0x88, 0x05, 0x47, 0xec, 0x23, 0x71, 0x9c, 0xc5, 0xf5, 0xb9,
  0xbf, 0x67, 0x2e, 0x1b, 0x9f, 0xe2, 0xf6, 0x7c, 0x71, 0x70, 0xa5, 0x78,
  0xaa, 0x1a, 0x94, 0x6d, 0x9e, 0x81, 0xf9, 0xed, 0x97, 0x6e, 0xcc, 0x93,
  0xed, 0x09, 0x06, 0x6c, 0x4e, 0x62, 0x52, 0xbd, 0xed, 0x22, 0x01, 0xe8,
  0x2d, 0x4d, 0xec, 0xf5, 0x90, 0xdc, 0x6a, 0xc1, 0x09, 0x64, 0xce, 0x81,
  0x1a, 0x39, 0x5a, 0x63, 0x42, 0x4e, 0xb4, 0xbc, 0xf4, 0xe0, 0x39, 0x3e,
  0xc0, 0x14, 0x0f, 0x74, 0x8a, 0x74, 0x3d, 0xe9, 0x38, 0x48, 0xca, 0x7f,
  0x32, 0x16, 0x76, 0x22, 0x7c, 0x5a, 0xd7, 0x62, 0x58, 0x1b, 0xd2, 0x7c,
  0x26, 0x78, 0xfb, 0xdf, 0x8d, 0x3c, 0xf9, 0xf8, 0xe6, 0xf9, 0xff, 0xff,
  0x04, 0x00, 0x00, 0x00, 0x00, 0x01, 0x00, 0x00, 0x00, 0x00, 0x00, 0x00,
  0x04, 0x00, 0x00, 0x00, 0xf6, 0xff, 0xff, 0xff, 0x00, 0x00, 0x00, 0x00,
  0xd7, 0xff, 0xff, 0xff, 0xfe, 0xff, 0xff, 0xff, 0x00, 0x00, 0x00, 0x00,
  0xf5, 0xff, 0xff, 0xff, 0x00, 0x00, 0x00, 0x00, 0x2f, 0x00, 0x00, 0x00,
  0x13, 0x00, 0x00, 0x00, 0x32, 0x00, 0x00, 0x00, 0x18, 0x00, 0x00, 0x00,
  0x2a, 0x00, 0x00, 0x00, 0x26, 0x00, 0x00, 0x00, 0x0a, 0x00, 0x00, 0x00,
  0xf2, 0xff, 0xff, 0xff, 0x26, 0x00, 0x00, 0x00, 0xec, 0xff, 0xff, 0xff,
  0x00, 0x00, 0x00, 0x00, 0xd2, 0xff, 0xff, 0xff, 0xe0, 0xff, 0xff, 0xff,
  0xdc, 0xff, 0xff, 0xff, 0x00, 0x00, 0x00, 0x00, 0x26, 0x00, 0x00, 0x00,
  0xfe, 0xff, 0xff, 0xff, 0xf3, 0xff, 0xff, 0xff, 0xea, 0xff, 0xff, 0xff,
  0x00, 0x00, 0x00, 0x00, 0xf1, 0xff, 0xff, 0xff, 0x21, 0x00, 0x00, 0x00,
  0xd9, 0xff, 0xff, 0xff, 0x00, 0x00, 0x00, 0x00, 0x00, 0x00, 0x00, 0x00,
  0x23, 0x00, 0x00, 0x00, 0xed, 0xff, 0xff, 0xff, 0x00, 0x00, 0x00, 0x00,
  0x1b, 0x00, 0x00, 0x00, 0xde, 0xff, 0xff, 0xff, 0xf6, 0xff, 0xff, 0xff,
  0x4b, 0x00, 0x00, 0x00, 0xcc, 0xff, 0xff, 0xff, 0x00, 0x00, 0x00, 0x00,
  0x00, 0x00, 0x00, 0x00, 0x27, 0x00, 0x00, 0x00, 0x09, 0x00, 0x00, 0x00,
  0xf1, 0xff, 0xff, 0xff, 0xe1, 0xff, 0xff, 0xff, 0x3f, 0x00, 0x00, 0x00,
  0xe5, 0xff, 0xff, 0xff, 0x33, 0x00, 0x00, 0x00, 0x81, 0xff, 0xff, 0xff,
  0x00, 0x00, 0x00, 0x00, 0x00, 0x00, 0x00, 0x00, 0x24, 0x00, 0x00, 0x00,
  0x0c, 0x00, 0x00, 0x00, 0x00, 0x00, 0x00, 0x00, 0xe5, 0xff, 0xff, 0xff,
  0xf1, 0xff, 0xff, 0xff, 0x44, 0x00, 0x00, 0x00, 0x00, 0x00, 0x00, 0x00,
  0xf7, 0xff, 0xff, 0xff, 0xea, 0xff, 0xff, 0xff, 0x18, 0x00, 0x00, 0x00,
  0xf2, 0xfa, 0xff, 0xff, 0x04, 0x00, 0x00, 0x00, 0x00, 0x05, 0x00, 0x00,
  0x8c, 0xca, 0xf6, 0x33, 0xd6, 0xee, 0x15, 0xd2, 0x71, 0x3a, 0x14, 0x49,
  0x5f, 0xd3, 0x15, 0xc3, 0x5d, 0xd5, 0x92, 0x1c, 0x0d, 0x99, 0x9e, 0xa0,
  0x6c, 0x42, 0x18, 0xf5, 0x29, 0x6b, 0xb3, 0xeb, 0xc5, 0xc5, 0xb6, 0xd9,
  0xfa, 0xab, 0x30, 0x0e, 0x08, 0x1e, 0x0f, 0x18, 0xce, 0x65, 0x12, 0x4a,
  0xa2, 0x1c, 0xaf, 0x8f, 0x07, 0x10, 0x79, 0x29, 0xd7, 0x94, 0x6a, 0x55,
  0x15, 0xd4, 0x21, 0x7f, 0x06, 0x6d, 0x35, 0xc1, 0x2c, 0xb4, 0xd6, 0xd6,
  0x54, 0x7a, 0x07, 0xbe, 0x76, 0x33, 0x5d, 0xfe, 0x7f, 0x34, 0x0d, 0x37,
  0x3d, 0x39, 0x2a, 0x48, 0xd5, 0xc0, 0x68, 0x0a, 0x46, 0x0b, 0x76, 0xef,
  0x83, 0x52, 0xc4, 0x8d, 0x62, 0x79, 0x47, 0x7c, 0x38, 0xc5, 0x11, 0x55,
  0x11, 0xd5, 0xd6, 0xc3, 0x10, 0xe7, 0x66, 0x5c, 0xf1, 0x89, 0xce, 0x1d,
  0x4a, 0x56, 0x1d, 0x0d, 0xb1, 0xe5, 0xfb, 0x34, 0xfa, 0xdc, 0x2d, 0xf2,
  0x47, 0x25, 0xd1, 0x11, 0x05, 0x7f, 0x03, 0x46, 0xc8, 0xe5, 0x59, 0xb3,
  0x04, 0x0e, 0xd4, 0x64, 0x58, 0xd2, 0x6d, 0xf0, 0xee, 0x39, 0xd6, 0xe1,
  0x30, 0xc1, 0x16, 0x0b, 0xc6, 0x1f, 0xdf, 0xbc, 0xe6, 0xe9, 0x0d, 0x63,
  0x2d, 0xf7, 0xa5, 0xb4, 0x18, 0x47, 0x1b, 0xe6, 0x77, 0xdf, 0x34, 0x91,
  0x9b, 0x00, 0x18, 0x2b, 0xe1, 0xdd, 0x22, 0xeb, 0x55, 0x48, 0xbb, 0xf1,
  0xf4, 0x06, 0x44, 0x3d, 0x04, 0x24, 0xd7, 0xcb, 0x09, 0x4f, 0x5d, 0xe5,
  0xf1, 0x18, 0xf5, 0x1d, 0x4e, 0x43, 0x0a, 0xec, 0x14, 0xfb, 0x33, 0xdf,
  0x57, 0x1e, 0x3a, 0xcd, 0xb3, 0x13, 0x26, 0xb8, 0x0f, 0xed, 0x27, 0x52,
  0x34, 0xfa, 0xcd, 0x4c, 0xf0, 0x3d, 0x2c, 0x03, 0x40, 0x43, 0x04, 0x3f,
  0x39, 0xd1, 0xfc, 0x7f, 0x3a, 0xd1, 0xca, 0x1a, 0x06, 0xd2, 0x14, 0xe4,
  0x1f, 0xfb, 0x3c, 0x02, 0xd2, 0x1f, 0x8b, 0x9f, 0x48, 0x8a, 0x82, 0x9a,
  0xf4, 0x03, 0x4f, 0x6e, 0x6c, 0xa5, 0xf8, 0x31, 0x3e, 0x28, 0x59, 0xc7,
  0xe2, 0xa3, 0xfc, 0xa3, 0x62, 0x65, 0x91, 0xf5, 0x59, 0x75, 0xa1, 0xe4,
  0x32, 0xa7, 0xa1, 0x84, 0x50, 0xb1, 0xbb, 0x14, 0x70, 0xb7, 0x73, 0xf3,
  0x1e, 0x09, 0x8d, 0xe0, 0x72, 0x81, 0x24, 0x96, 0x2e, 0x87, 0x42, 0xa8,
  0x5d, 0xd4, 0xbe, 0xdd, 0x6e, 0x25, 0x2b, 0x7b, 0xe0, 0xf9, 0x52, 0x9e,
  0xa4, 0x46, 0x3d, 0x1d, 0xf7, 0xd9, 0xb2, 0x63, 0x11, 0x3f, 0x35, 0xe2,
  0xe1, 0xf4, 0xc1, 0xd4, 0xc0, 0xc3, 0xf8, 0x4e, 0x3d, 0x2a, 0xf1, 0x28,
  0xf1, 0x17, 0xc2, 0x3d, 0x12, 0x4f, 0xf9, 0x3e, 0xbe, 0x19, 0xcc, 0xb7,
  0x66, 0x2c, 0x24, 0x28, 0x38, 0xb1, 0x1f, 0xb3, 0x16, 0x29, 0x5f, 0x7f,
  0xcf, 0xd8, 0x4c, 0xb9, 0x47, 0xd7, 0xfd, 0x09, 0x12, 0xa3, 0x30, 0xd1,
  0x6f, 0x64, 0x1d, 0xe4, 0x16, 0x0e, 0xbe, 0xdb, 0x4a, 0x40, 0xb1, 0x0a,
  0x5d, 0x30, 0x25, 0xb7, 0x2d, 0x4a, 0x61, 0xfd, 0xac, 0x1c, 0xaf, 0x05,
  0x4f, 0xb3, 0xc4, 0x0d, 0x3c, 0x42, 0x45, 0x9b, 0x06, 0x52, 0x73, 0x2f,
  0x6f, 0x47, 0x38, 0x6f, 0xd9, 0xde, 0x6c, 0xe5, 0xc7, 0x3d, 0x32, 0x0d,
  0x2a, 0xad, 0xd3, 0x81, 0x9f, 0xa0, 0xc0, 0xcb, 0xf2, 0x68, 0x22, 0x08,
  0x0c, 0xfd, 0x76, 0x3f, 0xc2, 0x27, 0xd7, 0x3d, 0xe7, 0x5a, 0x06, 0xd7,
  0xb6, 0x3a, 0x26, 0x44, 0xff, 0x21, 0x3f, 0x0b, 0x1f, 0xe5, 0xd5, 0xe1,
  0xc1, 0xb0, 0xe6, 0x12, 0x58, 0xfd, 0xde, 0x46, 0xd6, 0x46, 0x27, 0xfc,
  0xeb, 0x05, 0x15, 0xb5, 0x06, 0x5d, 0xc0, 0xcf, 0xcf, 0x1a, 0x21, 0xed,
  0x05, 0xc7, 0xfd, 0xaf, 0x2f, 0xce, 0x3b, 0x7f, 0xfe, 0xf8, 0xff, 0xee,
  0x51, 0xd1, 0x34, 0xad, 0xfe, 0x32, 0x40, 0x08, 0xb6, 0x03, 0x32, 0x9a,
  0x15, 0xc8, 0xf8, 0xf9, 0x9d, 0x04, 0x65, 0xdf, 0x37, 0x7f, 0xaf, 0x0e,
  0xad, 0xb4, 0x48, 0x14, 0xbe, 0xbf, 0x03, 0xe4, 0xdb, 0xaf, 0x3a, 0xc5,
  0x05, 0xb6, 0xbc, 0x2a, 0xeb, 0xf2, 0x24, 0xf4, 0x1f, 0x45, 0xc8, 0xa8,
  0x31, 0xba, 0x24, 0x32, 0xd6, 0x9d, 0x50, 0x30, 0x3d, 0x0a, 0xba, 0xc2,
  0x1a, 0xa2, 0x6e, 0xca, 0x2e, 0x02, 0x5b, 0x21, 0x99, 0x5d, 0xbe, 0x65,
  0xc5, 0x70, 0xd9, 0xa3, 0xf3, 0x47, 0xdb, 0x08, 0x2f, 0x1e, 0xff, 0x0f,
  0x26, 0xe1, 0xdb, 0xfc, 0xba, 0xe4, 0xae, 0x44, 0x09, 0xa0, 0xbe, 0xa2,
  0x1d, 0xf4, 0x18, 0xa8, 0xc4, 0x52, 0x27, 0xb2, 0xf2, 0xcd, 0xe0, 0x9c,
  0x0d, 0x54, 0x4c, 0xa0, 0x7f, 0xd9, 0xfc, 0x96, 0x00, 0x5f, 0xe5, 0x5d,
  0xae, 0x7a, 0x4a, 0x5b, 0xff, 0xf7, 0x6f, 0x73, 0xd4, 0xa3, 0xb3, 0x74,
  0xb9, 0xe0, 0x07, 0xdb, 0x46, 0x98, 0x94, 0xb2, 0x1f, 0xdf, 0x29, 0xc5,
  0x20, 0xf2, 0x5c, 0x2b, 0x71, 0xb1, 0x18, 0x2c, 0x33, 0x0c, 0x93, 0x18,
  0x6b, 0x46, 0x22, 0x81, 0x79, 0xfd, 0xd6, 0x4f, 0x09, 0xa8, 0x53, 0x63,
  0x19, 0x29, 0xe6, 0x21, 0x1b, 0x56, 0xa7, 0x34, 0x6c, 0x28, 0x44, 0x66,
  0xfe, 0x9a, 0xf9, 0xfa, 0x4b, 0x2a, 0x74, 0x86, 0x97, 0xd3, 0x39, 0x7a,
  0xe5, 0x0d, 0x23, 0xba, 0x2c, 0x89, 0x4c, 0xba, 0xc3, 0xe4, 0xc7, 0x2a,
  0x23, 0xe9, 0x6d, 0x65, 0x96, 0x34, 0x68, 0x68, 0x2a, 0x44, 0xe8, 0x40,
  0xa7, 0xe9, 0x9f, 0x09, 0x25, 0x35, 0x2f, 0xae, 0xf4, 0xc5, 0x3e, 0x14,
  0x20, 0xc6, 0x36, 0x1c, 0x56, 0xdd, 0x68, 0xc2, 0x97, 0x2a, 0xd7, 0xef,
  0xcb, 0x9e, 0x46, 0xd9, 0xe7, 0x1d, 0x3d, 0xf5, 0x66, 0x48, 0x97, 0x7f,
  0xae, 0x52, 0xae, 0x3e, 0x4c, 0x73, 0x39, 0x51, 0x46, 0x2a, 0x05, 0x60,
  0x8d, 0x6f, 0x66, 0xdb, 0x74, 0x3c, 0x1e, 0x08, 0x95, 0xc3, 0xdf, 0x38,
  0xc4, 0x73, 0x52, 0xe6, 0xe7, 0x38, 0x57, 0xb7, 0xc3, 0x7a, 0x30, 0xa0,
  0x00, 0x13, 0xd4, 0xb0, 0xef, 0x32, 0x6e, 0xc1, 0x0c, 0x2c, 0x02, 0x13,
  0x0d, 0xd7, 0x4f, 0xf6, 0x05, 0x30, 0x62, 0xd5, 0x7c, 0x05, 0x64, 0xc4,
  0x38, 0x90, 0x48, 0x81, 0xa7, 0x6b, 0xf5, 0xb7, 0x63, 0xbb, 0xb0, 0x09,
  0x46, 0x2a, 0x3c, 0xaf, 0xfe, 0xe1, 0xc4, 0xd0, 0x07, 0xee, 0xe9, 0x05,
  0x4f, 0x13, 0xf5, 0x4b, 0x07, 0x15, 0x0b, 0x47, 0x1f, 0xd1, 0xe7, 0xf4,
  0x4a, 0xd4, 0xbf, 0xbb, 0x4d, 0x2f, 0xf9, 0xba, 0x22, 0x15, 0x27, 0xc9,
  0x15, 0xc4, 0x01, 0xd0, 0xc7, 0xfd, 0xdb, 0x46, 0xd5, 0xc6, 0x0c, 0xd8,
  0x59, 0xe9, 0x01, 0xe8, 0xf6, 0x0c, 0xd3, 0x7f, 0x3e, 0x49, 0xca, 0x21,
  0xdb, 0xdf, 0xcd, 0x43, 0x0b, 0x34, 0x52, 0x2e, 0x1e, 0xf4, 0xd6, 0xca,
  0x10, 0xa3, 0xc7, 0xfc, 0xd3, 0x6f, 0x57, 0xb4, 0xf1, 0xd0, 0xe5, 0xb8,
  0xbc, 0xba, 0xa3, 0x61, 0x75, 0x62, 0xb8, 0x35, 0x63, 0xfc, 0x9c, 0xa0,
  0x01, 0x2e, 0x5c, 0x4c, 0x13, 0xaf, 0x7f, 0xb5, 0xcf, 0x3f, 0x55, 0x9c,
  0xf6, 0x64, 0xf1, 0xd1, 0x58, 0x48, 0xbe, 0x0c, 0x52, 0xcb, 0xfe, 0xcd,
  0xe7, 0x54, 0xab, 0x00, 0xc9, 0xdc, 0x6e, 0x6e, 0x1c, 0xb4, 0xda, 0xab,
  0xe4, 0x22, 0x02, 0xd7, 0x1c, 0x0c, 0x48, 0xdf, 0xc4, 0x32, 0x03, 0x0d,
  0x1d, 0x29, 0x37, 0xf6, 0xb9, 0xc4, 0x33, 0x09, 0x07, 0x21, 0xc6, 0x4a,
  0xea, 0x36, 0xbb, 0x07, 0xbb, 0xe3, 0x3b, 0x07, 0xd2, 0xca, 0xea, 0xd5,
  0xc8, 0xc7, 0xdf, 0xcc, 0x50, 0x1e, 0xf2, 0xb9, 0x53, 0x05, 0x16, 0x01,
  0xbf, 0xdf, 0xcd, 0x7f, 0xe4, 0x1e, 0xe1, 0xc7, 0xd8, 0x42, 0x2a, 0x1d,
  0x44, 0xe8, 0xd8, 0x51, 0x64, 0x61, 0xae, 0xa7, 0x30, 0x01, 0xd4, 0xe0,
  0xde, 0x3e, 0x34, 0x04, 0x3f, 0xd5, 0x45, 0x2a, 0x50, 0x04, 0x42, 0x5b,
  0x51, 0xed, 0xcb, 0x10, 0xae, 0x30, 0xbb, 0xd1, 0x38, 0x5a, 0xfc, 0x55,
  0xb3, 0x4a, 0x55, 0xc2, 0xa1, 0x16, 0x03, 0x55, 0x47, 0x46, 0x24, 0x04,
  0xd7, 0xfe, 0xd3, 0xb4, 0x1b, 0xaa, 0x2a, 0x81, 0x33, 0xc3, 0xf4, 0xe0,
  0x5b, 0xf2, 0x1c, 0x38, 0xca, 0xc4, 0xe4, 0xc5, 0xb3, 0xf8, 0xf3, 0xda,
  0x9a, 0xdd, 0x5a, 0x8e, 0x14, 0x34, 0xff, 0x4e, 0x19, 0x2e, 0x39, 0x49,
  0x99, 0xef, 0x91, 0xc8, 0x3a, 0xe7, 0x2f, 0x28, 0x7f, 0xc2, 0x25, 0x11,
  0x38, 0xe9, 0x06, 0xd9, 0xec, 0xb3, 0x77, 0x99, 0xde, 0x3f, 0xca, 0x8f,
  0xd6, 0xf6, 0x4c, 0x74, 0x14, 0x32, 0xd1, 0x62, 0xef, 0xde, 0x76, 0x71,
  0xfe, 0x65, 0xfa, 0x42, 0x5d, 0x58, 0x47, 0x31, 0x57, 0x8c, 0xde, 0xfb,
  0xee, 0xa2, 0x3a, 0xe6, 0xa2, 0xed, 0xed, 0xfa, 0xfd, 0xd8, 0x0a, 0x5c,
  0xa8, 0xd5, 0x55, 0xf0, 0x6a, 0x27, 0x57, 0x90, 0xa0, 0x37, 0xc8, 0xa5,
  0xd6, 0x35, 0x98, 0x4d, 0x13, 0xa8, 0x44, 0x11, 0xf1, 0x65, 0x6b, 0x26,
  0xbd, 0xff, 0x9d, 0x5b, 0x2d, 0xbd, 0xb2, 0xba, 0x7f, 0xe3, 0xfa, 0x4c,
  0x21, 0xae, 0x7d, 0xe6, 0x70, 0x16, 0x5c, 0x3d, 0xa4, 0xfe, 0xa3, 0x3a,
  0x43, 0x70, 0xde, 0x27, 0xc7, 0x10, 0x30, 0x22, 0x35, 0x1c, 0x17, 0xdc,
  0xef, 0x49, 0x4e, 0xf4, 0x38, 0x18, 0x51, 0x04, 0xf2, 0x36, 0xf1, 0x41,
  0x0a, 0xea, 0xf7, 0x21, 0x3e, 0x07, 0x1d, 0x02, 0x13, 0x24, 0xdb, 0xbb,
  0xea, 0x00, 0x2a, 0xf5, 0x06, 0x43, 0xba, 0x30, 0xb5, 0x24, 0xdd, 0x21,
  0x4f, 0x0c, 0xd6, 0x2d, 0x10, 0xe0, 0xd7, 0x7f, 0xef, 0x24, 0x29, 0x23,
  0xf2, 0x1e, 0x31, 0xbf, 0x17, 0x26, 0x16, 0x3b, 0x00, 0x00, 0x06, 0x00,
  0x08, 0x00, 0x04, 0x00, 0x06, 0x00, 0x00, 0x00, 0x04, 0x00, 0x00, 0x00,
  0x50, 0x00, 0x00, 0x00, 0x30, 0x00, 0x00, 0x00, 0x28, 0x00, 0x00, 0x00,
  0x51, 0x00, 0x00, 0x00, 0x1c, 0x00, 0x00, 0x00, 0x22, 0x00, 0x00, 0x00,
  0x3c, 0x00, 0x00, 0x00, 0x4b, 0x00, 0x00, 0x00, 0x0f, 0x00, 0x00, 0x00,
  0x4e, 0x00, 0x00, 0x00, 0x45, 0x00, 0x00, 0x00, 0x2d, 0x00, 0x00, 0x00,
  0x1c, 0x00, 0x00, 0x00, 0x2d, 0x00, 0x00, 0x00, 0x25, 0x00, 0x00, 0x00,
  0x3f, 0x00, 0x00, 0x00, 0x1f, 0x00, 0x00, 0x00, 0x31, 0x00, 0x00, 0x00,
  0x22, 0x00, 0x00, 0x00, 0x34, 0x00, 0x00, 0x00, 0x12, 0x00, 0x00, 0x00,
  0x50, 0xff, 0xff, 0xff, 0x54, 0xff, 0xff, 0xff, 0x0f, 0x00, 0x00, 0x00,
  0x4d, 0x4c, 0x49, 0x52, 0x20, 0x43, 0x6f, 0x6e, 0x76, 0x65, 0x72, 0x74,
  0x65, 0x64, 0x2e, 0x00, 0x01, 0x00, 0x00, 0x00, 0x14, 0x00, 0x00, 0x00,
  0x00, 0x00, 0x0e, 0x00, 0x18, 0x00, 0x14, 0x00, 0x10, 0x00, 0x0c, 0x00,
  0x08, 0x00, 0x04, 0x00, 0x0e, 0x00, 0x00, 0x00, 0x14, 0x00, 0x00, 0x00,
  0x1c, 0x00, 0x00, 0x00, 0xe8, 0x01, 0x00, 0x00, 0xec, 0x01, 0x00, 0x00,
  0xf0, 0x01, 0x00, 0x00, 0x04, 0x00, 0x00, 0x00, 0x6d, 0x61, 0x69, 0x6e,
  0x00, 0x00, 0x00, 0x00, 0x08, 0x00, 0x00, 0x00, 0xb0, 0x01, 0x00, 0x00,
  0x60, 0x01, 0x00, 0x00, 0x14, 0x01, 0x00, 0x00, 0xd8, 0x00, 0x00, 0x00,
  0x9c, 0x00, 0x00, 0x00, 0x60, 0x00, 0x00, 0x00, 0x24, 0x00, 0x00, 0x00,
  0x04, 0x00, 0x00, 0x00, 0x7a, 0xfe, 0xff, 0xff, 0x08, 0x00, 0x00, 0x00,
  0x0c, 0x00, 0x00, 0x00, 0x01, 0x00, 0x00, 0x00, 0x14, 0x00, 0x00, 0x00,
  0x01, 0x00, 0x00, 0x00, 0x13, 0x00, 0x00, 0x00, 0xe6, 0xfe, 0xff, 0xff,
  0x18, 0x00, 0x00, 0x00, 0x00, 0x00, 0x00, 0x08, 0x14, 0x00, 0x00, 0x00,
  0x18, 0x00, 0x00, 0x00, 0x01, 0x00, 0x00, 0x00, 0x04, 0x00, 0x04, 0x00,
  0x04, 0x00, 0x00, 0x00, 0x01, 0x00, 0x00, 0x00, 0x13, 0x00, 0x00, 0x00,
  0x03, 0x00, 0x00, 0x00, 0x12, 0x00, 0x00, 0x00, 0x02, 0x00, 0x00, 0x00,
  0x01, 0x00, 0x00, 0x00, 0x1e, 0xff, 0xff, 0xff, 0x14, 0x00, 0x00, 0x00,
  0x00, 0x00, 0x00, 0x08, 0x14, 0x00, 0x00, 0x00, 0x18, 0x00, 0x00, 0x00,
  0x01, 0x00, 0x00, 0x00, 0x0e, 0xff, 0xff, 0xff, 0x00, 0x00, 0x00, 0x01,
  0x01, 0x00, 0x00, 0x00, 0x12, 0x00, 0x00, 0x00, 0x03, 0x00, 0x00, 0x00,
  0x11, 0x00, 0x00, 0x00, 0x04, 0x00, 0x00, 0x00, 0x03, 0x00, 0x00, 0x00,
  0x56, 0xff, 0xff, 0xff, 0x14, 0x00, 0x00, 0x00, 0x00, 0x00, 0x00, 0x08,
  0x14, 0x00, 0x00, 0x00, 0x18, 0x00, 0x00, 0x00, 0x01, 0x00, 0x00, 0x00,
  0x46, 0xff, 0xff, 0xff, 0x00, 0x00, 0x00, 0x01, 0x01, 0x00, 0x00, 0x00,
  0x11, 0x00, 0x00, 0x00, 0x03, 0x00, 0x00, 0x00, 0x10, 0x00, 0x00, 0x00,
  0x06, 0x00, 0x00, 0x00, 0x05, 0x00, 0x00, 0x00, 0x8e, 0xff, 0xff, 0xff,
  0x14, 0x00, 0x00, 0x00, 0x00, 0x00, 0x00, 0x08, 0x14, 0x00, 0x00, 0x00,
  0x18, 0x00, 0x00, 0x00, 0x01, 0x00, 0x00, 0x00, 0x7e, 0xff, 0xff, 0xff,
  0x00, 0x00, 0x00, 0x01, 0x01, 0x00, 0x00, 0x00, 0x10, 0x00, 0x00, 0x00,
  0x03, 0x00, 0x00, 0x00, 0x0f, 0x00, 0x00, 0x00, 0x08, 0x00, 0x00, 0x00,
  0x07, 0x00, 0x00, 0x00, 0xc6, 0xff, 0xff, 0xff, 0x14, 0x00, 0x00, 0x00,
  0x00, 0x00, 0x00, 0x08, 0x14, 0x00, 0x00, 0x00, 0x18, 0x00, 0x00, 0x00,
  0x01, 0x00, 0x00, 0x00, 0xb6, 0xff, 0xff, 0xff, 0x00, 0x00, 0x00, 0x01,
  0x01, 0x00, 0x00, 0x00, 0x0f, 0x00, 0x00, 0x00, 0x03, 0x00, 0x00, 0x00,
  0x0e, 0x00, 0x00, 0x00, 0x0a, 0x00, 0x00, 0x00, 0x09, 0x00, 0x00, 0x00,
  0x00, 0x00, 0x0e, 0x00, 0x1a, 0x00, 0x14, 0x00, 0x10, 0x00, 0x0c, 0x00,
  0x0b, 0x00, 0x04, 0x00, 0x0e, 0x00, 0x00, 0x00, 0x1c, 0x00, 0x00, 0x00,
  0x00, 0x00, 0x00, 0x08, 0x1c, 0x00, 0x00, 0x00, 0x20, 0x00, 0x00, 0x00,
  0x01, 0x00, 0x00, 0x00, 0x00, 0x00, 0x06, 0x00, 0x08, 0x00, 0x07, 0x00,
  0x06, 0x00, 0x00, 0x00, 0x00, 0x00, 0x00, 0x01, 0x01, 0x00, 0x00, 0x00,
  0x0e, 0x00, 0x00, 0x00, 0x03, 0x00, 0x00, 0x00, 0x0d, 0x00, 0x00, 0x00,
  0x0c, 0x00, 0x00, 0x00, 0x0b, 0x00, 0x00, 0x00, 0x00, 0x00, 0x0a, 0x00,
  0x0c, 0x00, 0x00, 0x00, 0x08, 0x00, 0x04, 0x00, 0x0a, 0x00, 0x00, 0x00,
  0x08, 0x00, 0x00, 0x00, 0x0c, 0x00, 0x00, 0x00, 0x01, 0x00, 0x00, 0x00,
  0x0d, 0x00, 0x00, 0x00, 0x01, 0x00, 0x00, 0x00, 0x00, 0x00, 0x00, 0x00,
  0x01, 0x00, 0x00, 0x00, 0x14, 0x00, 0x00, 0x00, 0x01, 0x00, 0x00, 0x00,
  0x00, 0x00, 0x00, 0x00, 0x15, 0x00, 0x00, 0x00, 0x10, 0x1e, 0x00, 0x00,
  0xb0, 0x1c, 0x00, 0x00, 0x4c, 0x1b, 0x00, 0x00, 0xf8, 0x17, 0x00, 0x00,
  0x9c, 0x14, 0x00, 0x00, 0xc8, 0x12, 0x00, 0x00, 0xec, 0x10, 0x00, 0x00,
  0x38, 0x10, 0x00, 0x00, 0x7c, 0x0f, 0x00, 0x00, 0xa8, 0x0d, 0x00, 0x00,
  0xcc, 0x0b, 0x00, 0x00, 0x78, 0x08, 0x00, 0x00, 0x1c, 0x05, 0x00, 0x00,
  0xa8, 0x04, 0x00, 0x00, 0xf4, 0x03, 0x00, 0x00, 0x38, 0x03, 0x00, 0x00,
  0x7c, 0x02, 0x00, 0x00, 0xc0, 0x01, 0x00, 0x00, 0x04, 0x01, 0x00, 0x00,
  0x80, 0x00, 0x00, 0x00, 0x04, 0x00, 0x00, 0x00, 0x5a, 0xe2, 0xff, 0xff,
  0x00, 0x00, 0x00, 0x01, 0x18, 0x00, 0x00, 0x00, 0x20, 0x00, 0x00, 0x00,
  0x3c, 0x00, 0x00, 0x00, 0x15, 0x00, 0x00, 0x00, 0x00, 0x00, 0x00, 0x03,
  0x50, 0x00, 0x00, 0x00, 0x02, 0x00, 0x00, 0x00, 0xff, 0xff, 0xff, 0xff,
  0x14, 0x00, 0x00, 0x00, 0x44, 0xe2, 0xff, 0xff, 0x08, 0x00, 0x00, 0x00,
  0x10, 0x00, 0x00, 0x00, 0x01, 0x00, 0x00, 0x00, 0x00, 0x00, 0x00, 0x00,
  0x00, 0x00, 0x00, 0x00, 0x01, 0x00, 0x00, 0x00, 0x7f, 0xc9, 0x73, 0x3e,
  0x1b, 0x00, 0x00, 0x00, 0x53, 0x74, 0x61, 0x74, 0x65, 0x66, 0x75, 0x6c,
  0x50, 0x61, 0x72, 0x74, 0x69, 0x74, 0x69, 0x6f, 0x6e, 0x65, 0x64, 0x43,
  0x61, 0x6c, 0x6c, 0x5f, 0x31, 0x3a, 0x30, 0x00, 0x02, 0x00, 0x00, 0x00,
  0x01, 0x00, 0x00, 0x00, 0x14, 0x00, 0x00, 0x00, 0xd2, 0xe2, 0xff, 0xff,
  0x00, 0x00, 0x00, 0x01, 0x18, 0x00, 0x00, 0x00, 0x20, 0x00, 0x00, 0x00,
  0x40, 0x00, 0x00, 0x00, 0x14, 0x00, 0x00, 0x00, 0x00, 0x00, 0x00, 0x09,
  0x58, 0x00, 0x00, 0x00, 0x02, 0x00, 0x00, 0x00, 0xff, 0xff, 0xff, 0xff,
  0x14, 0x00, 0x00, 0x00, 0xbc, 0xe2, 0xff, 0xff, 0x08, 0x00, 0x00, 0x00,
  0x14, 0x00, 0x00, 0x00, 0x01, 0x00, 0x00, 0x00, 0x80, 0xff, 0xff, 0xff,
  0xff, 0xff, 0xff, 0xff, 0x00, 0x00, 0x00, 0x00, 0x01, 0x00, 0x00, 0x00,
  0x7f, 0xc9, 0x73, 0x3e, 0x1c, 0x00, 0x00, 0x00, 0x53, 0x74, 0x61, 0x74,
  0x65, 0x66, 0x75, 0x6c, 0x50, 0x61, 0x72, 0x74, 0x69, 0x74, 0x69, 0x6f,
  0x6e, 0x65, 0x64, 0x43, 0x61, 0x6c, 0x6c, 0x5f, 0x31, 0x3a, 0x30, 0x31,
  0x00, 0x00, 0x00, 0x00, 0x02, 0x00, 0x00, 0x00, 0x01, 0x00, 0x00, 0x00,
  0x14, 0x00, 0x00, 0x00, 0x52, 0xe3, 0xff, 0xff, 0x00, 0x00, 0x00, 0x01,
  0x18, 0x00, 0x00, 0x00, 0x20, 0x00, 0x00, 0x00, 0x3c, 0x00, 0x00, 0x00,
  0x13, 0x00, 0x00, 0x00, 0x00, 0x00, 0x00, 0x09, 0x90, 0x00, 0x00, 0x00,
  0x02, 0x00, 0x00, 0x00, 0xff, 0xff, 0xff, 0xff, 0x40, 0x00, 0x00, 0x00,
  0x3c, 0xe3, 0xff, 0xff, 0x08, 0x00, 0x00, 0x00, 0x10, 0x00, 0x00, 0x00,
  0x01, 0x00, 0x00, 0x00, 0x80, 0xff, 0xff, 0xff, 0xff, 0xff, 0xff, 0xff,
  0x01, 0x00, 0x00, 0x00, 0x37, 0x59, 0x8f, 0x3e, 0x58, 0x00, 0x00, 0x00,
  0x66, 0x75, 0x6e, 0x63, 0x74, 0x69, 0x6f, 0x6e, 0x61, 0x6c, 0x5f, 0x31,
  0x2f, 0x64, 0x65, 0x6e, 0x73, 0x65, 0x5f, 0x33, 0x5f, 0x31, 0x2f, 0x4d,
  0x61, 0x74, 0x4d, 0x75, 0x6c, 0x3b, 0x66, 0x75, 0x6e, 0x63, 0x74, 0x69,
  0x6f, 0x6e, 0x61, 0x6c, 0x5f, 0x31, 0x2f, 0x64, 0x65, 0x6e, 0x73, 0x65,
  0x5f, 0x33, 0x5f, 0x31, 0x2f, 0x52, 0x65, 0x6c, 0x75, 0x3b, 0x66, 0x75,
  0x6e, 0x63, 0x74, 0x69, 0x6f, 0x6e, 0x61, 0x6c, 0x5f, 0x31, 0x2f, 0x64,
  0x65, 0x6e, 0x73, 0x65, 0x5f, 0x33, 0x5f, 0x31, 0x2f, 0x42, 0x69, 0x61,
  0x73, 0x41, 0x64, 0x64, 0x00, 0x00, 0x00, 0x00, 0x02, 0x00, 0x00, 0x00,
  0x01, 0x00, 0x00, 0x00, 0x40, 0x00, 0x00, 0x00, 0x0a, 0xe4, 0xff, 0xff,
  0x00, 0x00, 0x00, 0x01, 0x18, 0x00, 0x00, 0x00, 0x20, 0x00, 0x00, 0x00,
  0x3c, 0x00, 0x00, 0x00, 0x12, 0x00, 0x00, 0x00, 0x00, 0x00, 0x00, 0x09,
  0x90, 0x00, 0x00, 0x00, 0x02, 0x00, 0x00, 0x00, 0xff, 0xff, 0xff, 0xff,
  0x20, 0x00, 0x00, 0x00, 0xf4, 0xe3, 0xff, 0xff, 0x08, 0x00, 0x00, 0x00,
  0x10, 0x00, 0x00, 0x00, 0x01, 0x00, 0x00, 0x00, 0x80, 0xff, 0xff, 0xff,
  0xff, 0xff, 0xff, 0xff, 0x01, 0x00, 0x00, 0x00, 0x02, 0x79, 0x9f, 0x3e,
  0x58, 0x00, 0x00, 0x00, 0x66, 0x75, 0x6e, 0x63, 0x74, 0x69, 0x6f, 0x6e,
  0x61, 0x6c, 0x5f, 0x31, 0x2f, 0x64, 0x65, 0x6e, 0x73, 0x65, 0x5f, 0x32,
  0x5f, 0x31, 0x2f, 0x4d, 0x61, 0x74, 0x4d, 0x75, 0x6c, 0x3b, 0x66, 0x75,
  0x6e, 0x63, 0x74, 0x69, 0x6f, 0x6e, 0x61, 0x6c, 0x5f, 0x31, 0x2f, 0x64,
  0x65, 0x6e, 0x73, 0x65, 0x5f, 0x32, 0x5f, 0x31, 0x2f, 0x52, 0x65, 0x6c,
  0x75, 0x3b, 0x66, 0x75, 0x6e, 0x63, 0x74, 0x69, 0x6f, 0x6e, 0x61, 0x6c,
  0x5f, 0x31, 0x2f, 0x64, 0x65, 0x6e, 0x73, 0x65, 0x5f, 0x32, 0x5f, 0x31,
  0x2f, 0x42, 0x69, 0x61, 0x73, 0x41, 0x64, 0x64, 0x00, 0x00, 0x00, 0x00,
  0x02, 0x00, 0x00, 0x00, 0x01, 0x00, 0x00, 0x00, 0x20, 0x00, 0x00, 0x00,
  0xc2, 0xe4, 0xff, 0xff, 0x00, 0x00, 0x00, 0x01, 0x18, 0x00, 0x00, 0x00,
  0x20, 0x00, 0x00, 0x00, 0x40, 0x00, 0x00, 0x00, 0x11, 0x00, 0x00, 0x00,
  0x00, 0x00, 0x00, 0x09, 0x90, 0x00, 0x00, 0x00, 0x02, 0x00, 0x00, 0x00,
  0xff, 0xff, 0xff, 0xff, 0x08, 0x00, 0x00, 0x00, 0xac, 0xe4, 0xff, 0xff,
  0x08, 0x00, 0x00, 0x00, 0x14, 0x00, 0x00, 0x00, 0x01, 0x00, 0x00, 0x00,
  0x80, 0xff, 0xff, 0xff, 0xff, 0xff, 0xff, 0xff, 0x00, 0x00, 0x00, 0x00,
  0x01, 0x00, 0x00, 0x00, 0xa9, 0x6e, 0x26, 0x3f, 0x55, 0x00, 0x00, 0x00,
  0x66, 0x75, 0x6e, 0x63, 0x74, 0x69, 0x6f, 0x6e, 0x61, 0x6c, 0x5f, 0x31,
  0x2f, 0x6c, 0x61, 0x74, 0x65, 0x6e, 0x74, 0x5f, 0x31, 0x2f, 0x4d, 0x61,
  0x74, 0x4d, 0x75, 0x6c, 0x3b, 0x66, 0x75, 0x6e, 0x63, 0x74, 0x69, 0x6f,
  0x6e, 0x61, 0x6c, 0x5f, 0x31, 0x2f, 0x6c, 0x61, 0x74, 0x65, 0x6e, 0x74,
  0x5f, 0x31, 0x2f, 0x52, 0x65, 0x6c, 0x75, 0x3b, 0x66, 0x75, 0x6e, 0x63,
  0x74, 0x69, 0x6f, 0x6e, 0x61, 0x6c, 0x5f, 0x31, 0x2f, 0x6c, 0x61, 0x74,
  0x65, 0x6e, 0x74, 0x5f, 0x31, 0x2f, 0x42, 0x69, 0x61, 0x73, 0x41, 0x64,
  0x64, 0x00, 0x00, 0x00, 0x02, 0x00, 0x00, 0x00, 0x01, 0x00, 0x00, 0x00,
  0x08, 0x00, 0x00, 0x00, 0x7a, 0xe5, 0xff, 0xff, 0x00, 0x00, 0x00, 0x01,
  0x18, 0x00, 0x00, 0x00, 0x20, 0x00, 0x00, 0x00, 0x3c, 0x00, 0x00, 0x00,
  0x10, 0x00, 0x00, 0x00, 0x00, 0x00, 0x00, 0x09, 0x90, 0x00, 0x00, 0x00,
  0x02, 0x00, 0x00, 0x00, 0xff, 0xff, 0xff, 0xff, 0x20, 0x00, 0x00, 0x00,
  0x64, 0xe5, 0xff, 0xff, 0x08, 0x00, 0x00, 0x00, 0x10, 0x00, 0x00, 0x00,
  0x01, 0x00, 0x00, 0x00, 0x80, 0xff, 0xff, 0xff, 0xff, 0xff, 0xff, 0xff,
  0x01, 0x00, 0x00, 0x00, 0x99, 0x1b, 0xe2, 0x3e, 0x58, 0x00, 0x00, 0x00,
  0x66, 0x75, 0x6e, 0x63, 0x74, 0x69, 0x6f, 0x6e, 0x61, 0x6c, 0x5f, 0x31,
  0x2f, 0x64, 0x65, 0x6e, 0x73, 0x65, 0x5f, 0x31, 0x5f, 0x32, 0x2f, 0x4d,
  0x61, 0x74, 0x4d, 0x75, 0x6c, 0x3b, 0x66, 0x75, 0x6e, 0x63, 0x74, 0x69,
  0x6f, 0x6e, 0x61, 0x6c, 0x5f, 0x31, 0x2f, 0x64, 0x65, 0x6e, 0x73, 0x65,
  0x5f, 0x31, 0x5f, 0x32, 0x2f, 0x52, 0x65, 0x6c, 0x75, 0x3b, 0x66, 0x75,
  0x6e, 0x63, 0x74, 0x69, 0x6f, 0x6e, 0x61, 0x6c, 0x5f, 0x31, 0x2f, 0x64,
  0x65, 0x6e, 0x73, 0x65, 0x5f, 0x31, 0x5f, 0x32, 0x2f, 0x42, 0x69, 0x61,
  0x73, 0x41, 0x64, 0x64, 0x00, 0x00, 0x00, 0x00, 0x02, 0x00, 0x00, 0x00,
  0x01, 0x00, 0x00, 0x00, 0x20, 0x00, 0x00, 0x00, 0x32, 0xe6, 0xff, 0xff,
  0x00, 0x00, 0x00, 0x01, 0x18, 0x00, 0x00, 0x00, 0x20, 0x00, 0x00, 0x00,
  0x3c, 0x00, 0x00, 0x00, 0x0f, 0x00, 0x00, 0x00, 0x00, 0x00, 0x00, 0x09,
  0x88, 0x00, 0x00, 0x00, 0x02, 0x00, 0x00, 0x00, 0xff, 0xff, 0xff, 0xff,
  0x40, 0x00, 0x00, 0x00, 0x1c, 0xe6, 0xff, 0xff, 0x08, 0x00, 0x00, 0x00,
  0x10, 0x00, 0x00, 0x00, 0x01, 0x00, 0x00, 0x00, 0x80, 0xff, 0xff, 0xff,
  0xff, 0xff, 0xff, 0xff, 0x01, 0x00, 0x00, 0x00, 0x36, 0x19, 0x09, 0x3f,
  0x52, 0x00, 0x00, 0x00, 0x66, 0x75, 0x6e, 0x63, 0x74, 0x69, 0x6f, 0x6e,
  0x61, 0x6c, 0x5f, 0x31, 0x2f, 0x64, 0x65, 0x6e, 0x73, 0x65, 0x5f, 0x31,
  0x2f, 0x4d, 0x61, 0x74, 0x4d, 0x75, 0x6c, 0x3b, 0x66, 0x75, 0x6e, 0x63,
  0x74, 0x69, 0x6f, 0x6e, 0x61, 0x6c, 0x5f, 0x31, 0x2f, 0x64, 0x65, 0x6e,
  0x73, 0x65, 0x5f, 0x31, 0x2f, 0x52, 0x65, 0x6c, 0x75, 0x3b, 0x66, 0x75,
  0x6e, 0x63, 0x74, 0x69, 0x6f, 0x6e, 0x61, 0x6c, 0x5f, 0x31, 0x2f, 0x64,
  0x65, 0x6e, 0x73, 0x65, 0x5f, 0x31, 0x2f, 0x42, 0x69, 0x61, 0x73, 0x41,
  0x64, 0x64, 0x00, 0x00, 0x02, 0x00, 0x00, 0x00, 0x01, 0x00, 0x00, 0x00,
  0x40, 0x00, 0x00, 0x00, 0xe2, 0xe6, 0xff, 0xff, 0x00, 0x00, 0x00, 0x01,
  0x18, 0x00, 0x00, 0x00, 0x20, 0x00, 0x00, 0x00, 0x40, 0x00, 0x00, 0x00,
  0x0e, 0x00, 0x00, 0x00, 0x00, 0x00, 0x00, 0x09, 0x48, 0x00, 0x00, 0x00,
  0x02, 0x00, 0x00, 0x00, 0xff, 0xff, 0xff, 0xff, 0x14, 0x00, 0x00, 0x00,
  0xcc, 0xe6, 0xff, 0xff, 0x08, 0x00, 0x00, 0x00, 0x14, 0x00, 0x00, 0x00,
  0x01, 0x00, 0x00, 0x00, 0x80, 0xff, 0xff, 0xff, 0xff, 0xff, 0xff, 0xff,
  0x00, 0x00, 0x00, 0x00, 0x01, 0x00, 0x00, 0x00, 0x27, 0x9b, 0x92, 0x3e,
  0x0c, 0x00, 0x00, 0x00, 0x74, 0x66, 0x6c, 0x2e, 0x71, 0x75, 0x61, 0x6e,
  0x74, 0x69, 0x7a, 0x65, 0x00, 0x00, 0x00, 0x00, 0x02, 0x00, 0x00, 0x00,
  0x01, 0x00, 0x00, 0x00, 0x14, 0x00, 0x00, 0x00, 0xae, 0xe8, 0xff, 0xff,
  0x00, 0x00, 0x00, 0x01, 0x14, 0x00, 0x00, 0x00, 0x28, 0x03, 0x00, 0x00,
  0x0d, 0x00, 0x00, 0x00, 0x00, 0x00, 0x00, 0x09, 0x34, 0x03, 0x00, 0x00,
  0x2c, 0xe7, 0xff, 0xff, 0x08, 0x00, 0x00, 0x00, 0x0c, 0x02, 0x00, 0x00,
  0x40, 0x00, 0x00, 0x00, 0x00, 0x00, 0x00, 0x00, 0x00, 0x00, 0x00, 0x00,
  0x00, 0x00, 0x00, 0x00, 0x00, 0x00, 0x00, 0x00, 0x00, 0x00, 0x00, 0x00,
  0x00, 0x00, 0x00, 0x00, 0x00, 0x00, 0x00, 0x00, 0x00, 0x00, 0x00, 0x00,
  0x00, 0x00, 0x00, 0x00, 0x00, 0x00, 0x00, 0x00, 0x00, 0x00, 0x00, 0x00,
  0x00, 0x00, 0x00, 0x00, 0x00, 0x00, 0x00, 0x00, 0x00, 0x00, 0x00, 0x00,
  0x00, 0x00, 0x00, 0x00, 0x00, 0x00, 0x00, 0x00, 0x00, 0x00, 0x00, 0x00,
  0x00, 0x00, 0x00, 0x00, 0x00, 0x00, 0x00, 0x00, 0x00, 0x00, 0x00, 0x00,
  0x00, 0x00, 0x00, 0x00, 0x00, 0x00, 0x00, 0x00, 0x00, 0x00, 0x00, 0x00,
  0x00, 0x00, 0x00, 0x00, 0x00, 0x00, 0x00, 0x00, 0x00, 0x00, 0x00, 0x00,
  0x00, 0x00, 0x00, 0x00, 0x00, 0x00, 0x00, 0x00, 0x00, 0x00, 0x00, 0x00,
  0x00, 0x00, 0x00, 0x00, 0x00, 0x00, 0x00, 0x00, 0x00, 0x00, 0x00, 0x00,
  0x00, 0x00, 0x00, 0x00, 0x00, 0x00, 0x00, 0x00, 0x00, 0x00, 0x00, 0x00,
  0x00, 0x00, 0x00, 0x00, 0x00, 0x00, 0x00, 0x00, 0x00, 0x00, 0x00, 0x00,
  0x00, 0x00, 0x00, 0x00, 0x00, 0x00, 0x00, 0x00, 0x00, 0x00, 0x00, 0x00,
  0x00, 0x00, 0x00, 0x00, 0x00, 0x00, 0x00, 0x00, 0x00, 0x00, 0x00, 0x00,
  0x00, 0x00, 0x00, 0x00, 0x00, 0x00, 0x00, 0x00, 0x00, 0x00, 0x00, 0x00,
  0x00, 0x00, 0x00, 0x00, 0x00, 0x00, 0x00, 0x00, 0x00, 0x00, 0x00, 0x00,
  0x00, 0x00, 0x00, 0x00, 0x00, 0x00, 0x00, 0x00, 0x00, 0x00, 0x00, 0x00,
  0x00, 0x00, 0x00, 0x00, 0x00, 0x00, 0x00, 0x00, 0x00, 0x00, 0x00, 0x00,
  0x00, 0x00, 0x00, 0x00, 0x00, 0x00, 0x00, 0x00, 0x00, 0x00, 0x00, 0x00,
  0x00, 0x00, 0x00, 0x00, 0x00, 0x00, 0x00, 0x00, 0x00, 0x00, 0x00, 0x00,
  0x00, 0x00, 0x00, 0x00, 0x00, 0x00, 0x00, 0x00, 0x00, 0x00, 0x00, 0x00,
  0x00, 0x00, 0x00, 0x00, 0x00, 0x00, 0x00, 0x00, 0x00, 0x00, 0x00, 0x00,
  0x00, 0x00, 0x00, 0x00, 0x00, 0x00, 0x00, 0x00, 0x00, 0x00, 0x00, 0x00,
  0x00, 0x00, 0x00, 0x00, 0x00, 0x00, 0x00, 0x00, 0x00, 0x00, 0x00, 0x00,
  0x00, 0x00, 0x00, 0x00, 0x00, 0x00, 0x00, 0x00, 0x00, 0x00, 0x00, 0x00,
  0x00, 0x00, 0x00, 0x00, 0x00, 0x00, 0x00, 0x00, 0x00, 0x00, 0x00, 0x00,
  0x00, 0x00, 0x00, 0x00, 0x00, 0x00, 0x00, 0x00, 0x00, 0x00, 0x00, 0x00,
  0x00, 0x00, 0x00, 0x00, 0x00, 0x00, 0x00, 0x00, 0x00, 0x00, 0x00, 0x00,
  0x00, 0x00, 0x00, 0x00, 0x00, 0x00, 0x00, 0x00, 0x00, 0x00, 0x00, 0x00,
  0x00, 0x00, 0x00, 0x00, 0x00, 0x00, 0x00, 0x00, 0x00, 0x00, 0x00, 0x00,
  0x00, 0x00, 0x00, 0x00, 0x00, 0x00, 0x00, 0x00, 0x00, 0x00, 0x00, 0x00,
  0x00, 0x00, 0x00, 0x00, 0x00, 0x00, 0x00, 0x00, 0x00, 0x00, 0x00, 0x00,
  0x00, 0x00, 0x00, 0x00, 0x00, 0x00, 0x00, 0x00, 0x00, 0x00, 0x00, 0x00,
  0x00, 0x00, 0x00, 0x00, 0x00, 0x00, 0x00, 0x00, 0x00, 0x00, 0x00, 0x00,
  0x00, 0x00, 0x00, 0x00, 0x00, 0x00, 0x00, 0x00, 0x00, 0x00, 0x00, 0x00,
  0x00, 0x00, 0x00, 0x00, 0x00, 0x00, 0x00, 0x00, 0x00, 0x00, 0x00, 0x00,
  0x00, 0x00, 0x00, 0x00, 0x00, 0x00, 0x00, 0x00, 0x00, 0x00, 0x00, 0x00,
  0x00, 0x00, 0x00, 0x00, 0x00, 0x00, 0x00, 0x00, 0x00, 0x00, 0x00, 0x00,
  0x00, 0x00, 0x00, 0x00, 0x00, 0x00, 0x00, 0x00, 0x00, 0x00, 0x00, 0x00,
  0x00, 0x00, 0x00, 0x00, 0x00, 0x00, 0x00, 0x00, 0x00, 0x00, 0x00, 0x00,
  0x00, 0x00, 0x00, 0x00, 0x00, 0x00, 0x00, 0x00, 0x00, 0x00, 0x00, 0x00,
  0x00, 0x00, 0x00, 0x00, 0x00, 0x00, 0x00, 0x00, 0x00, 0x00, 0x00, 0x00,
  0x00, 0x00, 0x00, 0x00, 0x40, 0x00, 0x00, 0x00, 0xfb, 0xcd, 0xfd, 0x3a,
  0x46, 0xe4, 0x03, 0x3b, 0x3f, 0xfa, 0x04, 0x3b, 0xd5, 0x16, 0x08, 0x3b,
  0x2e, 0x15, 0x17, 0x3b, 0xe3, 0xe7, 0x0a, 0x3b, 0xdf, 0xf9, 0x08, 0x3b,
  0x34, 0x5b, 0xfe, 0x3a, 0x3a, 0xb2, 0x08, 0x3b, 0x83, 0x22, 0xf8, 0x3a,
  0xa1, 0x16, 0xf7, 0x3a, 0x97, 0xa5, 0x0d, 0x3b, 0xe3, 0xc9, 0x2c, 0x3b,
  0x05, 0xdc, 0x14, 0x3b, 0xb4, 0xfb, 0x03, 0x3b, 0x21, 0x2b, 0x16, 0x3b,
  0x93, 0x9b, 0xf4, 0x3a, 0xb8, 0xb3, 0x21, 0x3b, 0x95, 0x51, 0xfb, 0x3a,
  0x1d, 0x56, 0x05, 0x3b, 0xb4, 0x6c, 0x08, 0x3b, 0x98, 0x34, 0x15, 0x3b,
  0x14, 0xb3, 0x10, 0x3b, 0xfb, 0xe9, 0x1a, 0x3b, 0x7e, 0xf8, 0x16, 0x3b,
  0xa3, 0x1c, 0x15, 0x3b, 0xd6, 0x87, 0xfd, 0x3a, 0x11, 0xa9, 0x04, 0x3b,
  0xa3, 0x19, 0xe7, 0x3a, 0x43, 0xe0, 0x08, 0x3b, 0xc4, 0xd5, 0x06, 0x3b,
  0x29, 0xf2, 0x03, 0x3b, 0x37, 0x7e, 0x0b, 0x3b, 0x48, 0xe3, 0x0e, 0x3b,
  0x08, 0x6a, 0x15, 0x3b, 0x8d, 0xd3, 0x0f, 0x3b, 0x94, 0x97, 0xe9, 0x3a,
  0x56, 0x91, 0x13, 0x3b, 0x1b, 0xd4, 0x02, 0x3b, 0x1d, 0x45, 0x16, 0x3b,
  0x2d, 0xa6, 0x0d, 0x3b, 0x93, 0x70, 0x15, 0x3b, 0x84, 0x55, 0x06, 0x3b,
  0x64, 0x9c, 0x06, 0x3b, 0x29, 0x54, 0x11, 0x3b, 0xe8, 0x98, 0x04, 0x3b,
  0x20, 0x95, 0xfc, 0x3a, 0x71, 0xfe, 0xff, 0x3a, 0x57, 0xb1, 0x01, 0x3b,
  0x6e, 0xcd, 0x07, 0x3b, 0x9e, 0xd9, 0x09, 0x3b, 0x14, 0x7d, 0x13, 0x3b,
  0x25, 0x41, 0x13, 0x3b, 0xa5, 0x24, 0x06, 0x3b, 0xe7, 0xc9, 0xf7, 0x3a,
  0x88, 0xa5, 0xf6, 0x3a, 0x6f, 0xec, 0x00, 0x3b, 0xa0, 0x10, 0x0a, 0x3b,
  0x7e, 0x8f, 0xfd, 0x3a, 0x61, 0x30, 0x07, 0x3b, 0xb3, 0x46, 0x08, 0x3b,
  0xd0, 0x56, 0x02, 0x3b, 0x61, 0xf4, 0x00, 0x3b, 0x6d, 0x4b, 0x04, 0x3b,
  0x13, 0x00, 0x00, 0x00, 0x74, 0x66, 0x6c, 0x2e, 0x70, 0x73, 0x65, 0x75,
  0x64, 0x6f, 0x5f, 0x71, 0x63, 0x6f, 0x6e, 0x73, 0x74, 0x31, 0x31, 0x00,
  0x02, 0x00, 0x00, 0x00, 0x40, 0x00, 0x00, 0x00, 0x14, 0x00, 0x00, 0x00,
  0x06, 0xec, 0xff, 0xff, 0x00, 0x00, 0x00, 0x01, 0x14, 0x00, 0x00, 0x00,
  0x24, 0x03, 0x00, 0x00, 0x0c, 0x00, 0x00, 0x00, 0x00, 0x00, 0x00, 0x02,
  0x30, 0x03, 0x00, 0x00, 0x84, 0xea, 0xff, 0xff, 0x08, 0x00, 0x00, 0x00,
  0x08, 0x02, 0x00, 0x00, 0x40, 0x00, 0x00, 0x00, 0x00, 0x00, 0x00, 0x00,
  0x00, 0x00, 0x00, 0x00, 0x00, 0x00, 0x00, 0x00, 0x00, 0x00, 0x00, 0x00,
  0x00, 0x00, 0x00, 0x00, 0x00, 0x00, 0x00, 0x00, 0x00, 0x00, 0x00, 0x00,
  0x00, 0x00, 0x00, 0x00, 0x00, 0x00, 0x00, 0x00, 0x00, 0x00, 0x00, 0x00,
  0x00, 0x00, 0x00, 0x00, 0x00, 0x00, 0x00, 0x00, 0x00, 0x00, 0x00, 0x00,
  0x00, 0x00, 0x00, 0x00, 0x00, 0x00, 0x00, 0x00, 0x00, 0x00, 0x00, 0x00,
  0x00, 0x00, 0x00, 0x00, 0x00, 0x00, 0x00, 0x00, 0x00, 0x00, 0x00, 0x00,
  0x00, 0x00, 0x00, 0x00, 0x00, 0x00, 0x00, 0x00, 0x00, 0x00, 0x00, 0x00,
  0x00, 0x00, 0x00, 0x00, 0x00, 0x00, 0x00, 0x00, 0x00, 0x00, 0x00, 0x00,
  0x00, 0x00, 0x00, 0x00, 0x00, 0x00, 0x00, 0x00, 0x00, 0x00, 0x00, 0x00,
  0x00, 0x00, 0x00, 0x00, 0x00, 0x00, 0x00, 0x00, 0x00, 0x00, 0x00, 0x00,
  0x00, 0x00, 0x00, 0x00, 0x00, 0x00, 0x00, 0x00, 0x00, 0x00, 0x00, 0x00,
  0x00, 0x00, 0x00, 0x00, 0x00, 0x00, 0x00, 0x00, 0x00, 0x00, 0x00, 0x00,
  0x00, 0x00, 0x00, 0x00, 0x00, 0x00, 0x00, 0x00, 0x00, 0x00, 0x00, 0x00,
  0x00, 0x00, 0x00, 0x00, 0x00, 0x00, 0x00, 0x00, 0x00, 0x00, 0x00, 0x00,
  0x00, 0x00, 0x00, 0x00, 0x00, 0x00, 0x00, 0x00, 0x00, 0x00, 0x00, 0x00,
  0x00, 0x00, 0x00, 0x00, 0x00, 0x00, 0x00, 0x00, 0x00, 0x00, 0x00, 0x00,
  0x00, 0x00, 0x00, 0x00, 0x00, 0x00, 0x00, 0x00, 0x00, 0x00, 0x00, 0x00,
  0x00, 0x00, 0x00, 0x00, 0x00, 0x00, 0x00, 0x00, 0x00, 0x00, 0x00, 0x00,
  0x00, 0x00, 0x00, 0x00, 0x00, 0x00, 0x00, 0x00, 0x00, 0x00, 0x00, 0x00,
  0x00, 0x00, 0x00, 0x00, 0x00, 0x00, 0x00, 0x00, 0x00, 0x00, 0x00, 0x00,
  0x00, 0x00, 0x00, 0x00, 0x00, 0x00, 0x00, 0x00, 0x00, 0x00, 0x00, 0x00,
  0x00, 0x00, 0x00, 0x00, 0x00, 0x00, 0x00, 0x00, 0x00, 0x00, 0x00, 0x00,
  0x00, 0x00, 0x00, 0x00, 0x00, 0x00, 0x00, 0x00, 0x00, 0x00, 0x00, 0x00,
  0x00, 0x00, 0x00, 0x00, 0x00, 0x00, 0x00, 0x00, 0x00, 0x00, 0x00, 0x00,
  0x00, 0x00, 0x00, 0x00, 0x00, 0x00, 0x00, 0x00, 0x00, 0x00, 0x00, 0x00,
  0x00, 0x00, 0x00, 0x00, 0x00, 0x00, 0x00, 0x00, 0x00, 0x00, 0x00, 0x00,
  0x00, 0x00, 0x00, 0x00, 0x00, 0x00, 0x00, 0x00, 0x00, 0x00, 0x00, 0x00,
  0x00, 0x00, 0x00, 0x00, 0x00, 0x00, 0x00, 0x00, 0x00, 0x00, 0x00, 0x00,
  0x00, 0x00, 0x00, 0x00, 0x00, 0x00, 0x00, 0x00, 0x00, 0x00, 0x00, 0x00,
  0x00, 0x00, 0x00, 0x00, 0x00, 0x00, 0x00, 0x00, 0x00, 0x00, 0x00, 0x00,
  0x00, 0x00, 0x00, 0x00, 0x00, 0x00, 0x00, 0x00, 0x00, 0x00, 0x00, 0x00,
  0x00, 0x00, 0x00, 0x00, 0x00, 0x00, 0x00, 0x00, 0x00, 0x00, 0x00, 0x00,
  0x00, 0x00, 0x00, 0x00, 0x00, 0x00, 0x00, 0x00, 0x00, 0x00, 0x00, 0x00,
  0x00, 0x00, 0x00, 0x00, 0x00, 0x00, 0x00, 0x00, 0x00, 0x00, 0x00, 0x00,
  0x00, 0x00, 0x00, 0x00, 0x00, 0x00, 0x00, 0x00, 0x00, 0x00, 0x00, 0x00,
  0x00, 0x00, 0x00, 0x00, 0x00, 0x00, 0x00, 0x00, 0x00, 0x00, 0x00, 0x00,
  0x00, 0x00, 0x00, 0x00, 0x00, 0x00, 0x00, 0x00, 0x00, 0x00, 0x00, 0x00,
  0x00, 0x00, 0x00, 0x00, 0x00, 0x00, 0x00, 0x00, 0x00, 0x00, 0x00, 0x00,
  0x00, 0x00, 0x00, 0x00, 0x00, 0x00, 0x00, 0x00, 0x00, 0x00, 0x00, 0x00,
  0x00, 0x00, 0x00, 0x00, 0x00, 0x00, 0x00, 0x00, 0x00, 0x00, 0x00, 0x00,
  0x00, 0x00, 0x00, 0x00, 0x00, 0x00, 0x00, 0x00, 0x00, 0x00, 0x00, 0x00,
  0x00, 0x00, 0x00, 0x00, 0x00, 0x00, 0x00, 0x00, 0x00, 0x00, 0x00, 0x00,
  0x00, 0x00, 0x00, 0x00, 0x40, 0x00, 0x00, 0x00, 0x4c, 0x59, 0x11, 0x3a,
  0x3e, 0x10, 0x17, 0x3a, 0x9f, 0x4e, 0x18, 0x3a, 0x00, 0xdf, 0x1b, 0x3a,
  0x4a, 0x0b, 0x2d, 0x3a, 0xde, 0x18, 0x1f, 0x3a, 0x0b, 0xe3, 0x1c, 0x3a,
  0x2c, 0xaa, 0x11, 0x3a, 0xfc, 0x90, 0x1c, 0x3a, 0x11, 0x1a, 0x0e, 0x3a,
  0xa8, 0x80, 0x0d, 0x3a, 0x92, 0x3c, 0x22, 0x3a, 0xb8, 0xe7, 0x45, 0x3a,
  0x65, 0x7f, 0x2a, 0x3a, 0x14, 0x2b, 0x17, 0x3a, 0x38, 0xff, 0x2b, 0x3a,
  0xf9, 0x14, 0x0c, 0x3a, 0xff, 0x34, 0x39, 0x3a, 0xd8, 0xec, 0x0f, 0x3a,
  0xd8, 0xb7, 0x18, 0x3a, 0x5b, 0x41, 0x1c, 0x3a, 0xd9, 0xe4, 0x2a, 0x3a,
  0xa8, 0xbb, 0x25, 0x3a, 0xa9, 0x6e, 0x31, 0x3a, 0x6f, 0xea, 0x2c, 0x3a,
  0x68, 0xc9, 0x2a, 0x3a, 0x20, 0x31, 0x11, 0x3a, 0xa5, 0xf1, 0x17, 0x3a,
  0xaf, 0x58, 0x04, 0x3a, 0xb6, 0xc5, 0x1c, 0x3a, 0x44, 0x6f, 0x1a, 0x3a,
  0x26, 0x20, 0x17, 0x3a, 0x0c, 0xc5, 0x1f, 0x3a, 0x71, 0xa8, 0x23, 0x3a,
  0x0d, 0x22, 0x2b, 0x3a, 0xa3, 0xbb, 0x24, 0x3a, 0x05, 0xc6, 0x05, 0x3a,
  0xa5, 0x04, 0x29, 0x3a, 0x84, 0xd8, 0x15, 0x3a, 0xfb, 0x1c, 0x2c, 0x3a,
  0x3e, 0x3d, 0x22, 0x3a, 0x8c, 0x29, 0x2b, 0x3a, 0x5f, 0xdc, 0x19, 0x3a,
  0x8c, 0x2d, 0x1a, 0x3a, 0x27, 0x74, 0x26, 0x3a, 0x22, 0xdf, 0x17, 0x3a,
  0x21, 0xa6, 0x10, 0x3a, 0x43, 0x9a, 0x12, 0x3a, 0x7b, 0x8b, 0x14, 0x3a,
  0xee, 0x8a, 0x1b, 0x3a, 0x50, 0xe3, 0x1d, 0x3a, 0x71, 0xed, 0x28, 0x3a,
  0xcc, 0xa8, 0x28, 0x3a, 0x65, 0xa4, 0x19, 0x3a, 0x53, 0xe7, 0x0d, 0x3a,
  0xe3, 0x3f, 0x0d, 0x3a, 0xf4, 0xa9, 0x13, 0x3a, 0x51, 0x22, 0x1e, 0x3a,
  0x82, 0x35, 0x11, 0x3a, 0x0c, 0xd7, 0x1a, 0x3a, 0xd3, 0x15, 0x1c, 0x3a,
  0x02, 0x49, 0x15, 0x3a, 0x0e, 0xb3, 0x13, 0x3a, 0x64, 0x86, 0x17, 0x3a,
  0x13, 0x00, 0x00, 0x00, 0x74, 0x66, 0x6c, 0x2e, 0x70, 0x73, 0x65, 0x75,
  0x64, 0x6f, 0x5f, 0x71, 0x63, 0x6f, 0x6e, 0x73, 0x74, 0x31, 0x30, 0x00,
  0x01, 0x00, 0x00, 0x00, 0x40, 0x00, 0x00, 0x00, 0x56, 0xef, 0xff, 0xff,
  0x00, 0x00, 0x00, 0x01, 0x14, 0x00, 0x00, 0x00, 0xa8, 0x01, 0x00, 0x00,
  0x0b, 0x00, 0x00, 0x00, 0x00, 0x00, 0x00, 0x09, 0xb4, 0x01, 0x00, 0x00,
  0xd4, 0xed, 0xff, 0xff, 0x08, 0x00, 0x00, 0x00, 0x0c, 0x01, 0x00, 0x00,
  0x20, 0x00, 0x00, 0x00, 0x00, 0x00, 0x00, 0x00, 0x00, 0x00, 0x00, 0x00,
  0x00, 0x00, 0x00, 0x00, 0x00, 0x00, 0x00, 0x00, 0x00, 0x00, 0x00, 0x00,
  0x00, 0x00, 0x00, 0x00, 0x00, 0x00, 0x00, 0x00, 0x00, 0x00, 0x00, 0x00,
  0x00, 0x00, 0x00, 0x00, 0x00, 0x00, 0x00, 0x00, 0x00, 0x00, 0x00, 0x00,
  0x00, 0x00, 0x00, 0x00, 0x00, 0x00, 0x00, 0x00, 0x00, 0x00, 0x00, 0x00,
  0x00, 0x00, 0x00, 0x00, 0x00, 0x00, 0x00, 0x00, 0x00, 0x00, 0x00, 0x00,
  0x00, 0x00, 0x00, 0x00, 0x00, 0x00, 0x00, 0x00, 0x00, 0x00, 0x00, 0x00,
  0x00, 0x00, 0x00, 0x00, 0x00, 0x00, 0x00, 0x00, 0x00, 0x00, 0x00, 0x00,
  0x00, 0x00, 0x00, 0x00, 0x00, 0x00, 0x00, 0x00, 0x00, 0x00, 0x00, 0x00,
  0x00, 0x00, 0x00, 0x00, 0x00, 0x00, 0x00, 0x00, 0x00, 0x00, 0x00, 0x00,
  0x00, 0x00, 0x00, 0x00, 0x00, 0x00, 0x00, 0x00, 0x00, 0x00, 0x00, 0x00,
  0x00, 0x00, 0x00, 0x00, 0x00, 0x00, 0x00, 0x00, 0x00, 0x00, 0x00, 0x00,
  0x00, 0x00, 0x00, 0x00, 0x00, 0x00, 0x00, 0x00, 0x00, 0x00, 0x00, 0x00,
  0x00, 0x00, 0x00, 0x00, 0x00, 0x00, 0x00, 0x00, 0x00, 0x00, 0x00, 0x00,
  0x00, 0x00, 0x00, 0x00, 0x00, 0x00, 0x00, 0x00, 0x00, 0x00, 0x00, 0x00,
  0x00, 0x00, 0x00, 0x00, 0x00, 0x00, 0x00, 0x00, 0x00, 0x00, 0x00, 0x00,
  0x00, 0x00, 0x00, 0x00, 0x00, 0x00, 0x00, 0x00, 0x00, 0x00, 0x00, 0x00,
  0x00, 0x00, 0x00, 0x00, 0x00, 0x00, 0x00, 0x00, 0x00, 0x00, 0x00, 0x00,
  0x00, 0x00, 0x00, 0x00, 0x00, 0x00, 0x00, 0x00, 0x00, 0x00, 0x00, 0x00,
  0x00, 0x00, 0x00, 0x00, 0x00, 0x00, 0x00, 0x00, 0x00, 0x00, 0x00, 0x00,
  0x00, 0x00, 0x00, 0x00, 0x00, 0x00, 0x00, 0x00, 0x00, 0x00, 0x00, 0x00,
  0x00, 0x00, 0x00, 0x00, 0x00, 0x00, 0x00, 0x00, 0x00, 0x00, 0x00, 0x00,
  0x20, 0x00, 0x00, 0x00, 0xc2, 0xcf, 0x10, 0x3b, 0x12, 0x9e, 0x3c, 0x3b,
  0x90, 0xc5, 0x19, 0x3b, 0x90, 0xe6, 0x2d, 0x3b, 0xa9, 0x70, 0xf6, 0x3a,
  0xba, 0x00, 0x0a, 0x3b, 0x4b, 0xf7, 0x23, 0x3b, 0x05, 0xf8, 0xfc, 0x3a,
  0x18, 0xa7, 0x0e, 0x3b, 0xaf, 0xc9, 0x08, 0x3b, 0x7a, 0xee, 0x04, 0x3b,
  0xc6, 0x46, 0xf9, 0x3a, 0x77, 0xa3, 0xfb, 0x3a, 0xbd, 0xac, 0x10, 0x3b,
  0x83, 0xbb, 0x1e, 0x3b, 0xd2, 0xba, 0x00, 0x3b, 0xaf, 0x7f, 0xfc, 0x3a,
  0xa5, 0x8c, 0xfb, 0x3a, 0xbc, 0x8f, 0x08, 0x3b, 0x6c, 0xbe, 0x01, 0x3b,
  0x54, 0x3a, 0x59, 0x3b, 0xb7, 0x67, 0x0f, 0x3b, 0x5b, 0xcd, 0xfa, 0x3a,
  0xa6, 0xec, 0x03, 0x3b, 0x46, 0xea, 0xff, 0x3a, 0x36, 0x78, 0x00, 0x3b,
  0x10, 0x06, 0xff, 0x3a, 0x2b, 0x6a, 0x0a, 0x3b, 0x2d, 0x34, 0x2d, 0x3b,
  0x28, 0x85, 0x03, 0x3b, 0x93, 0x29, 0x0e, 0x3b, 0xba, 0x8f, 0x08, 0x3b,
  0x12, 0x00, 0x00, 0x00, 0x74, 0x66, 0x6c, 0x2e, 0x70, 0x73, 0x65, 0x75,
  0x64, 0x6f, 0x5f, 0x71, 0x63, 0x6f, 0x6e, 0x73, 0x74, 0x39, 0x00, 0x00,
  0x02, 0x00, 0x00, 0x00, 0x20, 0x00, 0x00, 0x00, 0x40, 0x00, 0x00, 0x00,
  0x2e, 0xf1, 0xff, 0xff, 0x00, 0x00, 0x00, 0x01, 0x14, 0x00, 0x00, 0x00,
  0xa4, 0x01, 0x00, 0x00, 0x0a, 0x00, 0x00, 0x00, 0x00, 0x00, 0x00, 0x02,
  0xb0, 0x01, 0x00, 0x00, 0xac, 0xef, 0xff, 0xff, 0x08, 0x00, 0x00, 0x00,
  0x08, 0x01, 0x00, 0x00, 0x20, 0x00, 0x00, 0x00, 0x00, 0x00, 0x00, 0x00,
  0x00, 0x00, 0x00, 0x00, 0x00, 0x00, 0x00, 0x00, 0x00, 0x00, 0x00, 0x00,
  0x00, 0x00, 0x00, 0x00, 0x00, 0x00, 0x00, 0x00, 0x00, 0x00, 0x00, 0x00,
  0x00, 0x00, 0x00, 0x00, 0x00, 0x00, 0x00, 0x00, 0x00, 0x00, 0x00, 0x00,
  0x00, 0x00, 0x00, 0x00, 0x00, 0x00, 0x00, 0x00, 0x00, 0x00, 0x00, 0x00,
  0x00, 0x00, 0x00, 0x00, 0x00, 0x00, 0x00, 0x00, 0x00, 0x00, 0x00, 0x00,
  0x00, 0x00, 0x00, 0x00, 0x00, 0x00, 0x00, 0x00, 0x00, 0x00, 0x00, 0x00,
  0x00, 0x00, 0x00, 0x00, 0x00, 0x00, 0x00, 0x00, 0x00, 0x00, 0x00, 0x00,
  0x00, 0x00, 0x00, 0x00, 0x00, 0x00, 0x00, 0x00, 0x00, 0x00, 0x00, 0x00,
  0x00, 0x00, 0x00, 0x00, 0x00, 0x00, 0x00, 0x00, 0x00, 0x00, 0x00, 0x00,
  0x00, 0x00, 0x00, 0x00, 0x00, 0x00, 0x00, 0x00, 0x00, 0x00, 0x00, 0x00,
  0x00, 0x00, 0x00, 0x00, 0x00, 0x00, 0x00, 0x00, 0x00, 0x00, 0x00, 0x00,
  0x00, 0x00, 0x00, 0x00, 0x00, 0x00, 0x00, 0x00, 0x00, 0x00, 0x00, 0x00,
  0x00, 0x00, 0x00, 0x00, 0x00, 0x00, 0x00, 0x00, 0x00, 0x00, 0x00, 0x00,
  0x00, 0x00, 0x00, 0x00, 0x00, 0x00, 0x00, 0x00, 0x00, 0x00, 0x00, 0x00,
  0x00, 0x00, 0x00, 0x00, 0x00, 0x00, 0x00, 0x00, 0x00, 0x00, 0x00, 0x00,
  0x00, 0x00, 0x00, 0x00, 0x00, 0x00, 0x00, 0x00, 0x00, 0x00, 0x00, 0x00,
  0x00, 0x00, 0x00, 0x00, 0x00, 0x00, 0x00, 0x00, 0x00, 0x00, 0x00, 0x00,
  0x00, 0x00, 0x00, 0x00, 0x00, 0x00, 0x00, 0x00, 0x00, 0x00, 0x00, 0x00,
  0x00, 0x00, 0x00, 0x00, 0x00, 0x00, 0x00, 0x00, 0x00, 0x00, 0x00, 0x00,
  0x00, 0x00, 0x00, 0x00, 0x00, 0x00, 0x00, 0x00, 0x00, 0x00, 0x00, 0x00,
  0x00, 0x00, 0x00, 0x00, 0x00, 0x00, 0x00, 0x00, 0x00, 0x00, 0x00, 0x00,
  0x20, 0x00, 0x00, 0x00, 0xe3, 0x1a, 0x9b, 0x3a, 0x56, 0x06, 0xca, 0x3a,
  0xbe, 0xb3, 0xa4, 0x3a, 0x07, 0x43, 0xba, 0x3a, 0x8f, 0xfa, 0x83, 0x3a,
  0xf5, 0xcf, 0x93, 0x3a, 0xfa, 0x9e, 0xaf, 0x3a, 0xa4, 0x79, 0x87, 0x3a,
  0xf1, 0xca, 0x98, 0x3a, 0xce, 0x82, 0x92, 0x3a, 0x6d, 0x61, 0x8e, 0x3a,
  0x6c, 0x7f, 0x85, 0x3a, 0x43, 0xc3, 0x86, 0x3a, 0x61, 0xf5, 0x9a, 0x3a,
  0xf6, 0x03, 0xaa, 0x3a, 0x50, 0xe1, 0x89, 0x3a, 0x32, 0x39, 0x87, 0x3a,
  0x0a, 0xb7, 0x86, 0x3a, 0xbd, 0x44, 0x92, 0x3a, 0x5e, 0xf7, 0x8a, 0x3a,
  0x37, 0xab, 0xe8, 0x3a, 0x41, 0x99, 0x99, 0x3a, 0x99, 0x50, 0x86, 0x3a,
  0x46, 0x4d, 0x8d, 0x3a, 0x93, 0x0d, 0x89, 0x3a, 0xf7, 0x99, 0x89, 0x3a,
  0x5c, 0x93, 0x88, 0x3a, 0xe5, 0x40, 0x94, 0x3a, 0xf5, 0x83, 0xb9, 0x3a,
  0x6c, 0xde, 0x8c, 0x3a, 0x7f, 0x44, 0x98, 0x3a, 0xbb, 0x44, 0x92, 0x3a,
  0x12, 0x00, 0x00, 0x00, 0x74, 0x66, 0x6c, 0x2e, 0x70, 0x73, 0x65, 0x75,
  0x64, 0x6f, 0x5f, 0x71, 0x63, 0x6f, 0x6e, 0x73, 0x74, 0x38, 0x00, 0x00,
  0x01, 0x00, 0x00, 0x00, 0x20, 0x00, 0x00, 0x00, 0xfe, 0xf2, 0xff, 0xff,
  0x00, 0x00, 0x00, 0x01, 0x14, 0x00, 0x00, 0x00, 0x88, 0x00, 0x00, 0x00,
  0x09, 0x00, 0x00, 0x00, 0x00, 0x00, 0x00, 0x09, 0x94, 0x00, 0x00, 0x00,
  0x7c, 0xf1, 0xff, 0xff, 0x08, 0x00, 0x00, 0x00, 0x4c, 0x00, 0x00, 0x00,
  0x08, 0x00, 0x00, 0x00, 0x00, 0x00, 0x00, 0x00, 0x00, 0x00, 0x00, 0x00,
  0x00, 0x00, 0x00, 0x00, 0x00, 0x00, 0x00, 0x00, 0x00, 0x00, 0x00, 0x00,
  0x00, 0x00, 0x00, 0x00, 0x00, 0x00, 0x00, 0x00, 0x00, 0x00, 0x00, 0x00,
  0x00, 0x00, 0x00, 0x00, 0x00, 0x00, 0x00, 0x00, 0x00, 0x00, 0x00, 0x00,
  0x00, 0x00, 0x00, 0x00, 0x00, 0x00, 0x00, 0x00, 0x00, 0x00, 0x00, 0x00,
  0x00, 0x00, 0x00, 0x00, 0x00, 0x00, 0x00, 0x00, 0x00, 0x00, 0x00, 0x00,
  0x08, 0x00, 0x00, 0x00, 0x58, 0xd9, 0x3d, 0x3b, 0x49, 0x99, 0x54, 0x3b,
  0xde, 0xb7, 0x46, 0x3b, 0x85, 0x56, 0x3e, 0x3b, 0xb1, 0xe7, 0x39, 0x3b,
  0x8f, 0xfd, 0x56, 0x3b, 0x94, 0xda, 0x4d, 0x3b, 0xb3, 0xd9, 0x41, 0x3b,
  0x12, 0x00, 0x00, 0x00, 0x74, 0x66, 0x6c, 0x2e, 0x70, 0x73, 0x65, 0x75,
  0x64, 0x6f, 0x5f, 0x71, 0x63, 0x6f, 0x6e, 0x73, 0x74, 0x37, 0x00, 0x00,
  0x02, 0x00, 0x00, 0x00, 0x08, 0x00, 0x00, 0x00, 0x20, 0x00, 0x00, 0x00,
  0xb6, 0xf3, 0xff, 0xff, 0x00, 0x00, 0x00, 0x01, 0x14, 0x00, 0x00, 0x00,
  0x84, 0x00, 0x00, 0x00, 0x08, 0x00, 0x00, 0x00, 0x00, 0x00, 0x00, 0x02,
  0x90, 0x00, 0x00, 0x00, 0x34, 0xf2, 0xff, 0xff, 0x08, 0x00, 0x00, 0x00,
  0x48, 0x00, 0x00, 0x00, 0x08, 0x00, 0x00, 0x00, 0x00, 0x00, 0x00, 0x00,
  0x00, 0x00, 0x00, 0x00, 0x00, 0x00, 0x00, 0x00, 0x00, 0x00, 0x00, 0x00,
  0x00, 0x00, 0x00, 0x00, 0x00, 0x00, 0x00, 0x00, 0x00, 0x00, 0x00, 0x00,
  0x00, 0x00, 0x00, 0x00, 0x00, 0x00, 0x00, 0x00, 0x00, 0x00, 0x00, 0x00,
  0x00, 0x00, 0x00, 0x00, 0x00, 0x00, 0x00, 0x00, 0x00, 0x00, 0x00, 0x00,
  0x00, 0x00, 0x00, 0x00, 0x00, 0x00, 0x00, 0x00, 0x00, 0x00, 0x00, 0x00,
  0x08, 0x00, 0x00, 0x00, 0x57, 0xae, 0xa7, 0x3a, 0x3e, 0xc6, 0xbb, 0x3a,
  0xbe, 0x83, 0xaf, 0x3a, 0xe6, 0x1c, 0xa8, 0x3a, 0x95, 0x32, 0xa4, 0x3a,
  0x05, 0xe3, 0xbd, 0x3a, 0x28, 0xd1, 0xb5, 0x3a, 0x16, 0x37, 0xab, 0x3a,
  0x12, 0x00, 0x00, 0x00, 0x74, 0x66, 0x6c, 0x2e, 0x70, 0x73, 0x65, 0x75,
  0x64, 0x6f, 0x5f, 0x71, 0x63, 0x6f, 0x6e, 0x73, 0x74, 0x36, 0x00, 0x00,
  0x01, 0x00, 0x00, 0x00, 0x08, 0x00, 0x00, 0x00, 0x66, 0xf4, 0xff, 0xff,
  0x00, 0x00, 0x00, 0x01, 0x14, 0x00, 0x00, 0x00, 0xa8, 0x01, 0x00, 0x00,
  0x07, 0x00, 0x00, 0x00, 0x00, 0x00, 0x00, 0x09, 0xb4, 0x01, 0x00, 0x00,
  0xe4, 0xf2, 0xff, 0xff, 0x08, 0x00, 0x00, 0x00, 0x0c, 0x01, 0x00, 0x00,
  0x20, 0x00, 0x00, 0x00, 0x00, 0x00, 0x00, 0x00, 0x00, 0x00, 0x00, 0x00,
  0x00, 0x00, 0x00, 0x00, 0x00, 0x00, 0x00, 0x00, 0x00, 0x00, 0x00, 0x00,
  0x00, 0x00, 0x00, 0x00, 0x00, 0x00, 0x00, 0x00, 0x00, 0x00, 0x00, 0x00,
  0x00, 0x00, 0x00, 0x00, 0x00, 0x00, 0x00, 0x00, 0x00, 0x00, 0x00, 0x00,
  0x00, 0x00, 0x00, 0x00, 0x00, 0x00, 0x00, 0x00, 0x00, 0x00, 0x00, 0x00,
  0x00, 0x00, 0x00, 0x00, 0x00, 0x00, 0x00, 0x00, 0x00, 0x00, 0x00, 0x00,
  0x00, 0x00, 0x00, 0x00, 0x00, 0x00, 0x00, 0x00, 0x00, 0x00, 0x00, 0x00,
  0x00, 0x00, 0x00, 0x00, 0x00, 0x00, 0x00, 0x00, 0x00, 0x00, 0x00, 0x00,
  0x00, 0x00, 0x00, 0x00, 0x00, 0x00, 0x00, 0x00, 0x00, 0x00, 0x00, 0x00,
  0x00, 0x00, 0x00, 0x00, 0x00, 0x00, 0x00, 0x00, 0x00, 0x00, 0x00, 0x00,
  0x00, 0x00, 0x00, 0x00, 0x00, 0x00, 0x00, 0x00, 0x00, 0x00, 0x00, 0x00,
  0x00, 0x00, 0x00, 0x00, 0x00, 0x00, 0x00, 0x00, 0x00, 0x00, 0x00, 0x00,
  0x00, 0x00, 0x00, 0x00, 0x00, 0x00, 0x00, 0x00, 0x00, 0x00, 0x00, 0x00,
  0x00, 0x00, 0x00, 0x00, 0x00, 0x00, 0x00, 0x00, 0x00, 0x00, 0x00, 0x00,
  0x00, 0x00, 0x00, 0x00, 0x00, 0x00, 0x00, 0x00, 0x00, 0x00, 0x00, 0x00,
  0x00, 0x00, 0x00, 0x00, 0x00, 0x00, 0x00, 0x00, 0x00, 0x00, 0x00, 0x00,
  0x00, 0x00, 0x00, 0x00, 0x00, 0x00, 0x00, 0x00, 0x00, 0x00, 0x00, 0x00,
  0x00, 0x00, 0x00, 0x00, 0x00, 0x00, 0x00, 0x00, 0x00, 0x00, 0x00, 0x00,
  0x00, 0x00, 0x00, 0x00, 0x00, 0x00, 0x00, 0x00, 0x00, 0x00, 0x00, 0x00,
  0x00, 0x00, 0x00, 0x00, 0x00, 0x00, 0x00, 0x00, 0x00, 0x00, 0x00, 0x00,
  0x00, 0x00, 0x00, 0x00, 0x00, 0x00, 0x00, 0x00, 0x00, 0x00, 0x00, 0x00,
  0x00, 0x00, 0x00, 0x00, 0x00, 0x00, 0x00, 0x00, 0x00, 0x00, 0x00, 0x00,
  0x20, 0x00, 0x00, 0x00, 0xb1, 0x0d, 0x1d, 0x3b, 0xac, 0x42, 0x2f, 0x3b,
  0xe5, 0x8e, 0x2b, 0x3b, 0xa9, 0xbe, 0x1b, 0x3b, 0xfe, 0x3c, 0x43, 0x3b,
  0x51, 0x5e, 0x09, 0x3b, 0x7a, 0x74, 0x3f, 0x3b, 0x00, 0x66, 0xd9, 0x3a,
  0x5a, 0x4e, 0x39, 0x3b, 0x4f, 0xc2, 0x2e, 0x3b, 0xb5, 0x44, 0x44, 0x3b,
  0xa0, 0x41, 0x3a, 0x3b, 0xd4, 0x54, 0x23, 0x3b, 0xe8, 0xb6, 0xf6, 0x3a,
  0x0e, 0x4b, 0x3b, 0x3b, 0xf5, 0xcf, 0xed, 0x3a, 0x12, 0xba, 0x46, 0x3b,
  0x13, 0x44, 0x2e, 0x3b, 0x18, 0x93, 0x41, 0x3b, 0x65, 0x72, 0x43, 0x3b,
  0x37, 0x95, 0x3f, 0x3b, 0xc1, 0xee, 0x44, 0x3b, 0xbd, 0x9a, 0x33, 0x3b,
  0x8f, 0x0a, 0x2e, 0x3b, 0x78, 0x88, 0x35, 0x3b, 0x0b, 0x32, 0x12, 0x3b,
  0xea, 0xdb, 0x24, 0x3b, 0xcc, 0xd6, 0x32, 0x3b, 0xa9, 0x16, 0x37, 0x3b,
  0x97, 0x08, 0x25, 0x3b, 0x5b, 0x36, 0x43, 0x3b, 0xaf, 0x5f, 0xca, 0x3a,
  0x12, 0x00, 0x00, 0x00, 0x74, 0x66, 0x6c, 0x2e, 0x70, 0x73, 0x65, 0x75,
  0x64, 0x6f, 0x5f, 0x71, 0x63, 0x6f, 0x6e, 0x73, 0x74, 0x35, 0x00, 0x00,
  0x02, 0x00, 0x00, 0x00, 0x20, 0x00, 0x00, 0x00, 0x08, 0x00, 0x00, 0x00,
  0x3e, 0xf6, 0xff, 0xff, 0x00, 0x00, 0x00, 0x01, 0x14, 0x00, 0x00, 0x00,
  0xa4, 0x01, 0x00, 0x00, 0x06, 0x00, 0x00, 0x00, 0x00, 0x00, 0x00, 0x02,
  0xb0, 0x01, 0x00, 0x00, 0xbc, 0xf4, 0xff, 0xff, 0x08, 0x00, 0x00, 0x00,
  0x08, 0x01, 0x00, 0x00, 0x20, 0x00, 0x00, 0x00, 0x00, 0x00, 0x00, 0x00,
  0x00, 0x00, 0x00, 0x00, 0x00, 0x00, 0x00, 0x00, 0x00, 0x00, 0x00, 0x00,
  0x00, 0x00, 0x00, 0x00, 0x00, 0x00, 0x00, 0x00, 0x00, 0x00, 0x00, 0x00,
  0x00, 0x00, 0x00, 0x00, 0x00, 0x00, 0x00, 0x00, 0x00, 0x00, 0x00, 0x00,
  0x00, 0x00, 0x00, 0x00, 0x00, 0x00, 0x00, 0x00, 0x00, 0x00, 0x00, 0x00,
  0x00, 0x00, 0x00, 0x00, 0x00, 0x00, 0x00, 0x00, 0x00, 0x00, 0x00, 0x00,
  0x00, 0x00, 0x00, 0x00, 0x00, 0x00, 0x00, 0x00, 0x00, 0x00, 0x00, 0x00,
  0x00, 0x00, 0x00, 0x00, 0x00, 0x00, 0x00, 0x00, 0x00, 0x00, 0x00, 0x00,
  0x00, 0x00, 0x00, 0x00, 0x00, 0x00, 0x00, 0x00, 0x00, 0x00, 0x00, 0x00,
  0x00, 0x00, 0x00, 0x00, 0x00, 0x00, 0x00, 0x00, 0x00, 0x00, 0x00, 0x00,
  0x00, 0x00, 0x00, 0x00, 0x00, 0x00, 0x00, 0x00, 0x00, 0x00, 0x00, 0x00,
  0x00, 0x00, 0x00, 0x00, 0x00, 0x00, 0x00, 0x00, 0x00, 0x00, 0x00, 0x00,
  0x00, 0x00, 0x00, 0x00, 0x00, 0x00, 0x00, 0x00, 0x00, 0x00, 0x00, 0x00,
  0x00, 0x00, 0x00, 0x00, 0x00, 0x00, 0x00, 0x00, 0x00, 0x00, 0x00, 0x00,
  0x00, 0x00, 0x00, 0x00, 0x00, 0x00, 0x00, 0x00, 0x00, 0x00, 0x00, 0x00,
  0x00, 0x00, 0x00, 0x00, 0x00, 0x00, 0x00, 0x00, 0x00, 0x00, 0x00, 0x00,
  0x00, 0x00, 0x00, 0x00, 0x00, 0x00, 0x00, 0x00, 0x00, 0x00, 0x00, 0x00,
  0x00, 0x00, 0x00, 0x00, 0x00, 0x00, 0x00, 0x00, 0x00, 0x00, 0x00, 0x00,
  0x00, 0x00, 0x00, 0x00, 0x00, 0x00, 0x00, 0x00, 0x00, 0x00, 0x00, 0x00,
  0x00, 0x00, 0x00, 0x00, 0x00, 0x00, 0x00, 0x00, 0x00, 0x00, 0x00, 0x00,
  0x00, 0x00, 0x00, 0x00, 0x00, 0x00, 0x00, 0x00, 0x00, 0x00, 0x00, 0x00,
  0x00, 0x00, 0x00, 0x00, 0x00, 0x00, 0x00, 0x00, 0x00, 0x00, 0x00, 0x00,
  0x20, 0x00, 0x00, 0x00, 0x89, 0x35, 0xcc, 0x3a, 0xfc, 0xe1, 0xe3, 0x3a,
  0xa2, 0x11, 0xdf, 0x3a, 0xe9, 0x81, 0xca, 0x3a, 0xe4, 0xdb, 0xfd, 0x3a,
  0x13, 0x9d, 0xb2, 0x3a, 0x93, 0xf0, 0xf8, 0x3a, 0x1d, 0x56, 0x8d, 0x3a,
  0xd1, 0xf1, 0xf0, 0x3a, 0x14, 0x3b, 0xe3, 0x3a, 0xc9, 0x32, 0xff, 0x3a,
  0x22, 0x2e, 0xf2, 0x3a, 0x37, 0x5f, 0xd4, 0x3a, 0x40, 0x65, 0xa0, 0x3a,
  0x42, 0x87, 0xf3, 0x3a, 0xa5, 0x9b, 0x9a, 0x3a, 0x8f, 0x32, 0x01, 0x3b,
  0xf1, 0x96, 0xe2, 0x3a, 0x1d, 0xb2, 0xfb, 0x3a, 0x53, 0x21, 0xfe, 0x3a,
  0x25, 0x1b, 0xf9, 0x3a, 0xf2, 0x07, 0x00, 0x3b, 0xf3, 0x87, 0xe9, 0x3a,
  0x28, 0x4c, 0xe2, 0x3a, 0xed, 0x09, 0xec, 0x3a, 0x4a, 0x17, 0xbe, 0x3a,
  0xba, 0x5b, 0xd6, 0x3a, 0x2d, 0x89, 0xe8, 0x3a, 0xac, 0x0f, 0xee, 0x3a,
  0xd1, 0x95, 0xd6, 0x3a, 0x42, 0xd3, 0xfd, 0x3a, 0x86, 0x91, 0x83, 0x3a,
  0x12, 0x00, 0x00, 0x00, 0x74, 0x66, 0x6c, 0x2e, 0x70, 0x73, 0x65, 0x75,
  0x64, 0x6f, 0x5f, 0x71, 0x63, 0x6f, 0x6e, 0x73, 0x74, 0x34, 0x00, 0x00,
  0x01, 0x00, 0x00, 0x00, 0x20, 0x00, 0x00, 0x00, 0x0e, 0xf8, 0xff, 0xff,
  0x00, 0x00, 0x00, 0x01, 0x14, 0x00, 0x00, 0x00, 0x28, 0x03, 0x00, 0x00,
  0x05, 0x00, 0x00, 0x00, 0x00, 0x00, 0x00, 0x09, 0x34, 0x03, 0x00, 0x00,
  0x8c, 0xf6, 0xff, 0xff, 0x08, 0x00, 0x00, 0x00, 0x0c, 0x02, 0x00, 0x00,
  0x40, 0x00, 0x00, 0x00, 0x00, 0x00, 0x00, 0x00, 0x00, 0x00, 0x00, 0x00,
  0x00, 0x00, 0x00, 0x00, 0x00, 0x00, 0x00, 0x00, 0x00, 0x00, 0x00, 0x00,
  0x00, 0x00, 0x00, 0x00, 0x00, 0x00, 0x00, 0x00, 0x00, 0x00, 0x00, 0x00,
  0x00, 0x00, 0x00, 0x00, 0x00, 0x00, 0x00, 0x00, 0x00, 0x00, 0x00, 0x00,
  0x00, 0x00, 0x00, 0x00, 0x00, 0x00, 0x00, 0x00, 0x00, 0x00, 0x00, 0x00,
  0x00, 0x00, 0x00, 0x00, 0x00, 0x00, 0x00, 0x00, 0x00, 0x00, 0x00, 0x00,
  0x00, 0x00, 0x00, 0x00, 0x00, 0x00, 0x00, 0x00, 0x00, 0x00, 0x00, 0x00,
  0x00, 0x00, 0x00, 0x00, 0x00, 0x00, 0x00, 0x00, 0x00, 0x00, 0x00, 0x00,
  0x00, 0x00, 0x00, 0x00, 0x00, 0x00, 0x00, 0x00, 0x00, 0x00, 0x00, 0x00,
  0x00, 0x00, 0x00, 0x00, 0x00, 0x00, 0x00, 0x00, 0x00, 0x00, 0x00, 0x00,
  0x00, 0x00, 0x00, 0x00, 0x00, 0x00, 0x00, 0x00, 0x00, 0x00, 0x00, 0x00,
  0x00, 0x00, 0x00, 0x00, 0x00, 0x00, 0x00, 0x00, 0x00, 0x00, 0x00, 0x00,
  0x00, 0x00, 0x00, 0x00, 0x00, 0x00, 0x00, 0x00, 0x00, 0x00, 0x00, 0x00,
  0x00, 0x00, 0x00, 0x00, 0x00, 0x00, 0x00, 0x00, 0x00, 0x00, 0x00, 0x00,
  0x00, 0x00, 0x00, 0x00, 0x00, 0x00, 0x00, 0x00, 0x00, 0x00, 0x00, 0x00,
  0x00, 0x00, 0x00, 0x00, 0x00, 0x00, 0x00, 0x00, 0x00, 0x00, 0x00, 0x00,
  0x00, 0x00, 0x00, 0x00, 0x00, 0x00, 0x00, 0x00, 0x00, 0x00, 0x00, 0x00,
  0x00, 0x00, 0x00, 0x00, 0x00, 0x00, 0x00, 0x00, 0x00, 0x00, 0x00, 0x00,
  0x00, 0x00, 0x00, 0x00, 0x00, 0x00, 0x00, 0x00, 0x00, 0x00, 0x00, 0x00,
  0x00, 0x00, 0x00, 0x00, 0x00, 0x00, 0x00, 0x00, 0x00, 0x00, 0x00, 0x00,
  0x00, 0x00, 0x00, 0x00, 0x00, 0x00, 0x00, 0x00, 0x00, 0x00, 0x00, 0x00,
  0x00, 0x00, 0x00, 0x00, 0x00, 0x00, 0x00, 0x00, 0x00, 0x00, 0x00, 0x00,
  0x00, 0x00, 0x00, 0x00, 0x00, 0x00, 0x00, 0x00, 0x00, 0x00, 0x00, 0x00,
  0x00, 0x00, 0x00, 0x00, 0x00, 0x00, 0x00, 0x00, 0x00, 0x00, 0x00, 0x00,
  0x00, 0x00, 0x00, 0x00, 0x00, 0x00, 0x00, 0x00, 0x00, 0x00, 0x00, 0x00,
  0x00, 0x00, 0x00, 0x00, 0x00, 0x00, 0x00, 0x00, 0x00, 0x00, 0x00, 0x00,
  0x00, 0x00, 0x00, 0x00, 0x00, 0x00, 0x00, 0x00, 0x00, 0x00, 0x00, 0x00,
  0x00, 0x00, 0x00, 0x00, 0x00, 0x00, 0x00, 0x00, 0x00, 0x00, 0x00, 0x00,
  0x00, 0x00, 0x00, 0x00, 0x00, 0x00, 0x00, 0x00, 0x00, 0x00, 0x00, 0x00,
  0x00, 0x00, 0x00, 0x00, 0x00, 0x00, 0x00, 0x00, 0x00, 0x00, 0x00, 0x00,
  0x00, 0x00, 0x00, 0x00, 0x00, 0x00, 0x00, 0x00, 0x00, 0x00, 0x00, 0x00,
  0x00, 0x00, 0x00, 0x00, 0x00, 0x00, 0x00, 0x00, 0x00, 0x00, 0x00, 0x00,
  0x00, 0x00, 0x00, 0x00, 0x00, 0x00, 0x00, 0x00, 0x00, 0x00, 0x00, 0x00,
  0x00, 0x00, 0x00, 0x00, 0x00, 0x00, 0x00, 0x00, 0x00, 0x00, 0x00, 0x00,
  0x00, 0x00, 0x00, 0x00, 0x00, 0x00, 0x00, 0x00, 0x00, 0x00, 0x00, 0x00,
  0x00, 0x00, 0x00, 0x00, 0x00, 0x00, 0x00, 0x00, 0x00, 0x00, 0x00, 0x00,
  0x00, 0x00, 0x00, 0x00, 0x00, 0x00, 0x00, 0x00, 0x00, 0x00, 0x00, 0x00,
  0x00, 0x00, 0x00, 0x00, 0x00, 0x00, 0x00, 0x00, 0x00, 0x00, 0x00, 0x00,
  0x00, 0x00, 0x00, 0x00, 0x00, 0x00, 0x00, 0x00, 0x00, 0x00, 0x00, 0x00,
  0x00, 0x00, 0x00, 0x00, 0x00, 0x00, 0x00, 0x00, 0x00, 0x00, 0x00, 0x00,
  0x00, 0x00, 0x00, 0x00, 0x00, 0x00, 0x00, 0x00, 0x00, 0x00, 0x00, 0x00,
  0x00, 0x00, 0x00, 0x00, 0x00, 0x00, 0x00, 0x00, 0x00, 0x00, 0x00, 0x00,
  0x00, 0x00, 0x00, 0x00, 0x00, 0x00, 0x00, 0x00, 0x00, 0x00, 0x00, 0x00,
  0x00, 0x00, 0x00, 0x00, 0x40, 0x00, 0x00, 0x00, 0xfc, 0x17, 0xf6, 0x3a,
  0x95, 0x0b, 0x03, 0x3b, 0x51, 0xe8, 0xf4, 0x3a, 0x2c, 0x3d, 0x00, 0x3b,
  0x71, 0x3a, 0xe9, 0x3a, 0x2f, 0x2d, 0xf6, 0x3a, 0x38, 0xea, 0xfa, 0x3a,
  0x97, 0x47, 0xe2, 0x3a, 0xa7, 0xc5, 0xff, 0x3a, 0xcd, 0xbe, 0x0f, 0x3b,
  0xf0, 0x47, 0xfe, 0x3a, 0x75, 0xbe, 0x01, 0x3b, 0x49, 0x3d, 0x4d, 0x3b,
  0x92, 0xa8, 0x0e, 0x3b, 0x27, 0xb4, 0x0a, 0x3b, 0x1f, 0xae, 0x00, 0x3b,
  0xe0, 0x89, 0xfa, 0x3a, 0x74, 0xe0, 0xff, 0x3a, 0x7f, 0x6f, 0xfb, 0x3a,
  0x12, 0x57, 0x00, 0x3b, 0xa9, 0x47, 0xe7, 0x3a, 0xac, 0xf8, 0x03, 0x3b,
  0xb2, 0x4d, 0x05, 0x3b, 0x6d, 0x22, 0xf5, 0x3a, 0x86, 0x78, 0xfd, 0x3a,
  0xcf, 0x19, 0xfd, 0x3a, 0x34, 0xaf, 0x02, 0x3b, 0x71, 0x07, 0x08, 0x3b,
  0x41, 0xfa, 0xfe, 0x3a, 0x74, 0xf0, 0x01, 0x3b, 0x87, 0x21, 0x07, 0x3b,
  0x4e, 0x50, 0x02, 0x3b, 0x5d, 0xf0, 0xf8, 0x3a, 0xe2, 0xd0, 0x00, 0x3b,
  0x3e, 0x5f, 0xf6, 0x3a, 0xc8, 0x2a, 0xfb, 0x3a, 0xcc, 0xb9, 0x00, 0x3b,
  0x12, 0xa0, 0x02, 0x3b, 0x48, 0x4d, 0x09, 0x3b, 0x6d, 0xc4, 0xfb, 0x3a,
  0x62, 0xa2, 0x16, 0x3b, 0xa4, 0x62, 0x12, 0x3b, 0x0e, 0xed, 0xf4, 0x3a,
  0x97, 0xf9, 0xfd, 0x3a, 0x55, 0x15, 0x13, 0x3b, 0x6a, 0x6b, 0xf7, 0x3a,
  0xab, 0x66, 0x24, 0x3b, 0x22, 0x9d, 0xe4, 0x3a, 0xf8, 0x05, 0xf9, 0x3a,
  0x53, 0xad, 0xff, 0x3a, 0x9a, 0x75, 0x0b, 0x3b, 0xea, 0x36, 0x73, 0x3b,
  0xa5, 0x00, 0xf7, 0x3a, 0x20, 0xb6, 0xff, 0x3a, 0xd1, 0x46, 0x3b, 0x3b,
  0x27, 0xdf, 0x03, 0x3b, 0x57, 0x2d, 0xfc, 0x3a, 0x11, 0xcc, 0x01, 0x3b,
  0x9b, 0xde, 0x03, 0x3b, 0x12, 0x24, 0x10, 0x3b, 0xce, 0x0a, 0xe5, 0x3a,
  0xf0, 0xfa, 0xfc, 0x3a, 0x57, 0xd6, 0xfd, 0x3a, 0xb7, 0xa1, 0xfb, 0x3a,
  0x12, 0x00, 0x00, 0x00, 0x74, 0x66, 0x6c, 0x2e, 0x70, 0x73, 0x65, 0x75,
  0x64, 0x6f, 0x5f, 0x71, 0x63, 0x6f, 0x6e, 0x73, 0x74, 0x33, 0x00, 0x00,
  0x02, 0x00, 0x00, 0x00, 0x40, 0x00, 0x00, 0x00, 0x20, 0x00, 0x00, 0x00,
  0x66, 0xfb, 0xff, 0xff, 0x00, 0x00, 0x00, 0x01, 0x14, 0x00, 0x00, 0x00,
  0x24, 0x03, 0x00, 0x00, 0x04, 0x00, 0x00, 0x00, 0x00, 0x00, 0x00, 0x02,
  0x30, 0x03, 0x00, 0x00, 0xe4, 0xf9, 0xff, 0xff, 0x08, 0x00, 0x00, 0x00,
  0x08, 0x02, 0x00, 0x00, 0x40, 0x00, 0x00, 0x00, 0x00, 0x00, 0x00, 0x00,
  0x00, 0x00, 0x00, 0x00, 0x00, 0x00, 0x00, 0x00, 0x00, 0x00, 0x00, 0x00,
  0x00, 0x00, 0x00, 0x00, 0x00, 0x00, 0x00, 0x00, 0x00, 0x00, 0x00, 0x00,
  0x00, 0x00, 0x00, 0x00, 0x00, 0x00, 0x00, 0x00, 0x00, 0x00, 0x00, 0x00,
  0x00, 0x00, 0x00, 0x00, 0x00, 0x00, 0x00, 0x00, 0x00, 0x00, 0x00, 0x00,
  0x00, 0x00, 0x00, 0x00, 0x00, 0x00, 0x00, 0x00, 0x00, 0x00, 0x00, 0x00,
  0x00, 0x00, 0x00, 0x00, 0x00, 0x00, 0x00, 0x00, 0x00, 0x00, 0x00, 0x00,
  0x00, 0x00, 0x00, 0x00, 0x00, 0x00, 0x00, 0x00, 0x00, 0x00, 0x00, 0x00,
  0x00, 0x00, 0x00, 0x00, 0x00, 0x00, 0x00, 0x00, 0x00, 0x00, 0x00, 0x00,
  0x00, 0x00, 0x00, 0x00, 0x00, 0x00, 0x00, 0x00, 0x00, 0x00, 0x00, 0x00,
  0x00, 0x00, 0x00, 0x00, 0x00, 0x00, 0x00, 0x00, 0x00, 0x00, 0x00, 0x00,
  0x00, 0x00, 0x00, 0x00, 0x00, 0x00, 0x00, 0x00, 0x00, 0x00, 0x00, 0x00,
  0x00, 0x00, 0x00, 0x00, 0x00, 0x00, 0x00, 0x00, 0x00, 0x00, 0x00, 0x00,
  0x00, 0x00, 0x00, 0x00, 0x00, 0x00, 0x00, 0x00, 0x00, 0x00, 0x00, 0x00,
  0x00, 0x00, 0x00, 0x00, 0x00, 0x00, 0x00, 0x00, 0x00, 0x00, 0x00, 0x00,
  0x00, 0x00, 0x00, 0x00, 0x00, 0x00, 0x00, 0x00, 0x00, 0x00, 0x00, 0x00,
  0x00, 0x00, 0x00, 0x00, 0x00, 0x00, 0x00, 0x00, 0x00, 0x00, 0x00, 0x00,
  0x00, 0x00, 0x00, 0x00, 0x00, 0x00, 0x00, 0x00, 0x00, 0x00, 0x00, 0x00,
  0x00, 0x00, 0x00, 0x00, 0x00, 0x00, 0x00, 0x00, 0x00, 0x00, 0x00, 0x00,
  0x00, 0x00, 0x00, 0x00, 0x00, 0x00, 0x00, 0x00, 0x00, 0x00, 0x00, 0x00,
  0x00, 0x00, 0x00, 0x00, 0x00, 0x00, 0x00, 0x00, 0x00, 0x00, 0x00, 0x00,
  0x00, 0x00, 0x00, 0x00, 0x00, 0x00, 0x00, 0x00, 0x00, 0x00, 0x00, 0x00,
  0x00, 0x00, 0x00, 0x00, 0x00, 0x00, 0x00, 0x00, 0x00, 0x00, 0x00, 0x00,
  0x00, 0x00, 0x00, 0x00, 0x00, 0x00, 0x00, 0x00, 0x00, 0x00, 0x00, 0x00,
  0x00, 0x00, 0x00, 0x00, 0x00, 0x00, 0x00, 0x00, 0x00, 0x00, 0x00, 0x00,
  0x00, 0x00, 0x00, 0x00, 0x00, 0x00, 0x00, 0x00, 0x00, 0x00, 0x00, 0x00,
  0x00, 0x00, 0x00, 0x00, 0x00, 0x00, 0x00, 0x00, 0x00, 0x00, 0x00, 0x00,
  0x00, 0x00, 0x00, 0x00, 0x00, 0x00, 0x00, 0x00, 0x00, 0x00, 0x00, 0x00,
  0x00, 0x00, 0x00, 0x00, 0x00, 0x00, 0x00, 0x00, 0x00, 0x00, 0x00, 0x00,
  0x00, 0x00, 0x00, 0x00, 0x00, 0x00, 0x00, 0x00, 0x00, 0x00, 0x00, 0x00,
  0x00, 0x00, 0x00, 0x00, 0x00, 0x00, 0x00, 0x00, 0x00, 0x00, 0x00, 0x00,
  0x00, 0x00, 0x00, 0x00, 0x00, 0x00, 0x00, 0x00, 0x00, 0x00, 0x00, 0x00,
  0x00, 0x00, 0x00, 0x00, 0x00, 0x00, 0x00, 0x00, 0x00, 0x00, 0x00, 0x00,
  0x00, 0x00, 0x00, 0x00, 0x00, 0x00, 0x00, 0x00, 0x00, 0x00, 0x00, 0x00,
  0x00, 0x00, 0x00, 0x00, 0x00, 0x00, 0x00, 0x00, 0x00, 0x00, 0x00, 0x00,
  0x00, 0x00, 0x00, 0x00, 0x00, 0x00, 0x00, 0x00, 0x00, 0x00, 0x00, 0x00,
  0x00, 0x00, 0x00, 0x00, 0x00, 0x00, 0x00, 0x00, 0x00, 0x00, 0x00, 0x00,
  0x00, 0x00, 0x00, 0x00, 0x00, 0x00, 0x00, 0x00, 0x00, 0x00, 0x00, 0x00,
  0x00, 0x00, 0x00, 0x00, 0x00, 0x00, 0x00, 0x00, 0x00, 0x00, 0x00, 0x00,
  0x00, 0x00, 0x00, 0x00, 0x00, 0x00, 0x00, 0x00, 0x00, 0x00, 0x00, 0x00,
  0x00, 0x00, 0x00, 0x00, 0x00, 0x00, 0x00, 0x00, 0x00, 0x00, 0x00, 0x00,
  0x00, 0x00, 0x00, 0x00, 0x00, 0x00, 0x00, 0x00, 0x00, 0x00, 0x00, 0x00,
  0x00, 0x00, 0x00, 0x00, 0x00, 0x00, 0x00, 0x00, 0x00, 0x00, 0x00, 0x00,
  0x00, 0x00, 0x00, 0x00, 0x40, 0x00, 0x00, 0x00, 0x39, 0x4d, 0x19, 0x3a,
  0x46, 0x44, 0x23, 0x3a, 0x0e, 0x90, 0x18, 0x3a, 0x38, 0xc5, 0x1f, 0x3a,
  0x8b, 0x49, 0x11, 0x3a, 0x6d, 0x5a, 0x19, 0x3a, 0x13, 0x4e, 0x1c, 0x3a,
  0x6c, 0xf5, 0x0c, 0x3a, 0xa9, 0x54, 0x1f, 0x3a, 0xe7, 0x16, 0x33, 0x3a,
  0xe0, 0x66, 0x1e, 0x3a, 0x3d, 0xa5, 0x21, 0x3a, 0x28, 0xb4, 0x7f, 0x3a,
  0x43, 0xbc, 0x31, 0x3a, 0xe9, 0xce, 0x2c, 0x3a, 0xf1, 0x51, 0x20, 0x3a,
  0x0f, 0x12, 0x1c, 0x3a, 0x5b, 0x65, 0x1f, 0x3a, 0x1a, 0xa1, 0x1c, 0x3a,
  0x7d, 0xe5, 0x1f, 0x3a, 0xd5, 0x12, 0x10, 0x3a, 0xa9, 0x6b, 0x24, 0x3a,
  0x89, 0x14, 0x26, 0x3a, 0x41, 0xb4, 0x18, 0x3a, 0xab, 0xe5, 0x1d, 0x3a,
  0xab, 0xaa, 0x1d, 0x3a, 0x2e, 0xd1, 0x22, 0x3a, 0xd8, 0x79, 0x29, 0x3a,
  0xf5, 0xd5, 0x1e, 0x3a, 0x87, 0xe3, 0x21, 0x3a, 0x66, 0x5b, 0x28, 0x3a,
  0xf3, 0x5a, 0x22, 0x3a, 0xf5, 0x12, 0x1b, 0x3a, 0x40, 0x7d, 0x20, 0x3a,
  0x9c, 0x79, 0x19, 0x3a, 0x4b, 0x76, 0x1c, 0x3a, 0x7d, 0x60, 0x20, 0x3a,
  0x54, 0xbe, 0x22, 0x3a, 0xcd, 0x0f, 0x2b, 0x3a, 0x02, 0xd6, 0x1c, 0x3a,
  0x1e, 0xac, 0x3b, 0x3a, 0xeb, 0x60, 0x36, 0x3a, 0x02, 0x93, 0x18, 0x3a,
