// Auto-generated from ae_uint8.tflite
// Model size: 11784 bytes

#ifndef AE_MODEL_DATA_H
#define AE_MODEL_DATA_H

#include <stdint.h>

const unsigned int ae_model_data_len = 11784;

alignas(8) const uint8_t ae_model_data[] = {
    0x20, 0x00, 0x00, 0x00, 0x54, 0x46, 0x4c, 0x33, 0x00, 0x00, 0x00, 0x00,
    0x14, 0x00, 0x20, 0x00, 0x1c, 0x00, 0x18, 0x00, 0x14, 0x00, 0x10, 0x00,
    0x0c, 0x00, 0x00, 0x00, 0x08, 0x00, 0x04, 0x00, 0x14, 0x00, 0x00, 0x00,
    0x1c, 0x00, 0x00, 0x00, 0x1c, 0x00, 0x00, 0x00, 0x9c, 0x00, 0x00, 0x00,
    0xcc, 0x21, 0x00, 0x00, 0xdc, 0x21, 0x00, 0x00, 0x90, 0x2d, 0x00, 0x00,
    0x03, 0x00, 0x00, 0x00, 0x00, 0x00, 0x00, 0x00, 0x03, 0x00, 0x00, 0x00,
    0x5c, 0x00, 0x00, 0x00, 0x2c, 0x00, 0x00, 0x00, 0x04, 0x00, 0x00, 0x00,
    0xb8, 0xff, 0xff, 0xff, 0x18, 0x00, 0x00, 0x00, 0x04, 0x00, 0x00, 0x00,
    0x13, 0x00, 0x00, 0x00, 0x43, 0x4f, 0x4e, 0x56, 0x45, 0x52, 0x53, 0x49,
    0x4f, 0x4e, 0x5f, 0x4d, 0x45, 0x54, 0x41, 0x44, 0x41, 0x54, 0x41, 0x00,
    0xdc, 0xff, 0xff, 0xff, 0x17, 0x00, 0x00, 0x00, 0x04, 0x00, 0x00, 0x00,
    0x13, 0x00, 0x00, 0x00, 0x6d, 0x69, 0x6e, 0x5f, 0x72, 0x75, 0x6e, 0x74,
    0x69, 0x6d, 0x65, 0x5f, 0x76, 0x65, 0x72, 0x73, 0x69, 0x6f, 0x6e, 0x00,
    0x08, 0x00, 0x0c, 0x00, 0x08, 0x00, 0x04, 0x00, 0x08, 0x00, 0x00, 0x00,
    0x16, 0x00, 0x00, 0x00, 0x04, 0x00, 0x00, 0x00, 0x13, 0x00, 0x00, 0x00,
    0x6d, 0x69, 0x6e, 0x5f, 0x72, 0x75, 0x6e, 0x74, 0x69, 0x6d, 0x65, 0x5f,
    0x76, 0x65, 0x72, 0x73, 0x69, 0x6f, 0x6e, 0x00, 0x19, 0x00, 0x00, 0x00,
    0x2c, 0x21, 0x00, 0x00, 0x24, 0x21, 0x00, 0x00, 0xc4, 0x20, 0x00, 0x00,
    0xac, 0x1b, 0x00, 0x00, 0x9c, 0x1a, 0x00, 0x00, 0x8c, 0x12, 0x00, 0x00,
    0xfc, 0x11, 0x00, 0x00, 0xec, 0x10, 0x00, 0x00, 0xbc, 0x10, 0x00, 0x00,
    0xac, 0x0f, 0x00, 0x00, 0x1c, 0x0f, 0x00, 0x00, 0x0c, 0x07, 0x00, 0x00,
    0xfc, 0x05, 0x00, 0x00, 0xec, 0x00, 0x00, 0x00, 0xe4, 0x00, 0x00, 0x00,
    0xdc, 0x00, 0x00, 0x00, 0xd4, 0x00, 0x00, 0x00, 0xcc, 0x00, 0x00, 0x00,
    0xc4, 0x00, 0x00, 0x00, 0xbc, 0x00, 0x00, 0x00, 0xb4, 0x00, 0x00, 0x00,
    0xac, 0x00, 0x00, 0x00, 0x8c, 0x00, 0x00, 0x00, 0x6c, 0x00, 0x00, 0x00,
    0x04, 0x00, 0x00, 0x00, 0x9e, 0xdf, 0xff, 0xff, 0x04, 0x00, 0x00, 0x00,
    0x58, 0x00, 0x00, 0x00, 0x0c, 0x00, 0x00, 0x00, 0x08, 0x00, 0x0e, 0x00,
    0x08, 0x00, 0x04, 0x00, 0x08, 0x00, 0x00, 0x00, 0x10, 0x00, 0x00, 0x00,
    0x28, 0x00, 0x00, 0x00, 0x00, 0x00, 0x06, 0x00, 0x08, 0x00, 0x04, 0x00,
    0x06, 0x00, 0x00, 0x00, 0x04, 0x00, 0x00, 0x00, 0x01, 0x00, 0x00, 0x00,
    0xeb, 0x03, 0x00, 0x00, 0x00, 0x00, 0x0a, 0x00, 0x10, 0x00, 0x0c, 0x00,
    0x08, 0x00, 0x04, 0x00, 0x0a, 0x00, 0x00, 0x00, 0x03, 0x00, 0x00, 0x00,
    0x02, 0x00, 0x00, 0x00, 0x04, 0x00, 0x00, 0x00, 0x06, 0x00, 0x00, 0x00,
    0x32, 0x2e, 0x31, 0x36, 0x2e, 0x32, 0x00, 0x00, 0x02, 0xe0, 0xff, 0xff,
    0x04, 0x00, 0x00, 0x00, 0x10, 0x00, 0x00, 0x00, 0x00, 0x00, 0x00, 0x00,
    0x00, 0x00, 0x00, 0x00, 0x00, 0x00, 0x00, 0x00, 0x00, 0x00, 0x00, 0x00,
    0x1e, 0xe0, 0xff, 0xff, 0x04, 0x00, 0x00, 0x00, 0x10, 0x00, 0x00, 0x00,
    0x31, 0x2e, 0x31, 0x34, 0x2e, 0x30, 0x00, 0x00, 0x00, 0x00, 0x00, 0x00,
    0x00, 0x00, 0x00, 0x00, 0x28, 0xdf, 0xff, 0xff, 0x2c, 0xdf, 0xff, 0xff,
    0x30, 0xdf, 0xff, 0xff, 0x34, 0xdf, 0xff, 0xff, 0x38, 0xdf, 0xff, 0xff,
    0x3c, 0xdf, 0xff, 0xff, 0x40, 0xdf, 0xff, 0xff, 0x44, 0xdf, 0xff, 0xff,
    0x5a, 0xe0, 0xff, 0xff, 0x04, 0x00, 0x00, 0x00, 0x00, 0x05, 0x00, 0x00,
    0x41, 0x4c, 0x06, 0x5c, 0x3e, 0x1e, 0x47, 0x4d, 0x1c, 0x3a, 0x22, 0xba,
    0x1b, 0xb3, 0xa1, 0x03, 0xdb, 0x0a, 0xa1, 0x4d, 0x09, 0xec, 0xc5, 0xdd,
    0xc4, 0xcb, 0x5b, 0xdd, 0xb6, 0xd7, 0xf7, 0xe4, 0x01, 0x18, 0xfb, 0xe2,
    0xdf, 0xff, 0x07, 0xdd, 0xdb, 0x16, 0x15, 0x9a, 0x48, 0xad, 0x29, 0xd5,
    0x25, 0xb0, 0xbf, 0x2c, 0x13, 0x54, 0xc3, 0xc0, 0x32, 0xec, 0xb1, 0xf5,
    0x63, 0xae, 0xa3, 0x5c, 0x60, 0x1a, 0x22, 0xb5, 0x6a, 0x01, 0x49, 0xf3,
    0xfe, 0xc3, 0x1c, 0x17, 0xc9, 0x35, 0xf7, 0xb4, 0x0f, 0xb1, 0xbc, 0x41,
    0x0a, 0x59, 0x23, 0xc6, 0x72, 0xff, 0x39, 0xab, 0x69, 0xc2, 0x41, 0xff,
    0xcc, 0x39, 0x36, 0x6e, 0x1f, 0xeb, 0xc1, 0x23, 0xb7, 0xd9, 0xe7, 0xab,
    0x10, 0x9d, 0x3d, 0x16, 0xb7, 0x0a, 0x44, 0x34, 0xbb, 0xe7, 0x3f, 0x38,
    0x97, 0x65, 0xaf, 0xa0, 0xf3, 0x05, 0xac, 0xae, 0xa4, 0xda, 0x1f, 0x55,
    0xda, 0x12, 0x98, 0x19, 0x32, 0xe5, 0x18, 0x07, 0xc3, 0x28, 0x00, 0x1a,
    0x49, 0xa0, 0xdd, 0xf8, 0x1e, 0x57, 0x12, 0xb2, 0xa7, 0xf1, 0x04, 0xd2,
    0xb7, 0xc0, 0x21, 0x15, 0xc0, 0x4d, 0x34, 0x61, 0xe5, 0x40, 0x0e, 0x96,
    0x30, 0x8f, 0x9f, 0xb0, 0x22, 0x1d, 0x9e, 0xb0, 0x0c, 0x06, 0x3d, 0x4b,
    0x90, 0x9c, 0x43, 0x24, 0x50, 0xf4, 0x55, 0x56, 0xc3, 0x16, 0xb6, 0x19,
    0xe8, 0xf0, 0x0b, 0xf4, 0x5d, 0xcf, 0x04, 0x3e, 0x3c, 0x27, 0xe3, 0x54,
    0x9e, 0x57, 0xb3, 0x0c, 0x3e, 0x23, 0xf9, 0x69, 0x0c, 0xee, 0xf6, 0xfe,
    0x71, 0x36, 0x31, 0x23, 0x98, 0x9b, 0x03, 0xaf, 0x0a, 0x3b, 0xf5, 0x42,
    0x48, 0x46, 0x5e, 0x03, 0xa0, 0x22, 0xa6, 0xc5, 0x0f, 0x01, 0xff, 0x06,
    0x0d, 0x12, 0xdf, 0xc3, 0x5c, 0xd3, 0xed, 0xc5, 0x4f, 0xd3, 0x9b, 0xb1,
    0x32, 0x4f, 0x3a, 0x98, 0x99, 0xe1, 0xdc, 0x20, 0x0f, 0x2b, 0xb7, 0xbe,
    0x3d, 0xbe, 0x51, 0x29, 0xeb, 0x5c, 0xa7, 0xe9, 0x42, 0xd2, 0x07, 0xd2,
    0xe3, 0xd8, 0xbc, 0x30, 0x9a, 0xb5, 0x2e, 0x42, 0xba, 0xb2, 0xf0, 0xd1,
    0x4b, 0xd2, 0xd4, 0xda, 0xd6, 0x28, 0x1d, 0x28, 0xa2, 0xa1, 0x4a, 0xc0,
    0xc7, 0xbb, 0xcf, 0xc6, 0x30, 0xb8, 0xe1, 0xc3, 0x1d, 0xf4, 0x5b, 0x06,
    0x5f, 0x51, 0xee, 0xf4, 0x21, 0x21, 0x12, 0xc0, 0xd7, 0x67, 0x07, 0x39,
    0x8c, 0x3f, 0x38, 0x26, 0x45, 0x1a, 0xf4, 0xc1, 0xb6, 0x54, 0xf0, 0x01,
    0x94, 0x40, 0x1f, 0xd2, 0xec, 0xe3, 0x22, 0x9d, 0x2d, 0x10, 0x2e, 0x3c,
    0x45, 0xbf, 0xfa, 0xa8, 0x5f, 0xc1, 0xf1, 0xe1, 0x07, 0xbc, 0x38, 0x3c,
    0x55, 0x03, 0x4e, 0x3f, 0x03, 0x39, 0xe0, 0x3a, 0xc8, 0x2f, 0xeb, 0x50,
    0x60, 0xc4, 0xcc, 0x31, 0x4e, 0x73, 0x11, 0x60, 0xe8, 0x4d, 0xac, 0x39,
    0x54, 0x62, 0x57, 0x6c, 0xfa, 0x44, 0xf1, 0x4a, 0x69, 0x1e, 0x0f, 0xa2,
    0xfa, 0x3c, 0xcf, 0xb1, 0x6c, 0x53, 0x33, 0xc5, 0xa8, 0xb6, 0x65, 0x11,
    0x44, 0x4c, 0x14, 0x50, 0xc8, 0x09, 0x63, 0x42, 0x6e, 0x13, 0xe0, 0xd1,
    0x20, 0xd6, 0xdd, 0x66, 0x42, 0x1f, 0x02, 0xfb, 0x09, 0xab, 0xcb, 0x97,
    0x05, 0xa4, 0x58, 0x2c, 0xc1, 0xa8, 0xcc, 0x44, 0xc3, 0x4e, 0x35, 0xb4,
    0x6d, 0x56, 0xf0, 0x42, 0x9e, 0x55, 0xe5, 0xbe, 0x01, 0x18, 0xdc, 0xdf,
    0x0a, 0x1e, 0xa0, 0x42, 0xae, 0xf7, 0xf5, 0xea, 0x50, 0x54, 0xc2, 0x02,
    0x9a, 0xdf, 0xb1, 0x3d, 0xa6, 0xab, 0x1f, 0x4c, 0xfe, 0x02, 0xf0, 0xf9,
    0x18, 0xa2, 0x22, 0xbf, 0x95, 0x4c, 0xe5, 0x9a, 0x62, 0x47, 0xc0, 0x44,
    0xe4, 0x14, 0xfb, 0x4d, 0x0a, 0xec, 0xcc, 0x3f, 0x2c, 0x34, 0xaa, 0xce,
    0x31, 0x45, 0x20, 0xed, 0x28, 0x3f, 0xb2, 0xe7, 0x25, 0xa7, 0x41, 0xbd,
    0xe7, 0x40, 0xe4, 0x18, 0x9a, 0x47, 0xd5, 0x34, 0xdf, 0x6a, 0xa0, 0x02,
    0xfa, 0x4e, 0x1c, 0x2a, 0xd6, 0x18, 0x4b, 0xf4, 0xe4, 0x64, 0x49, 0x28,
    0xb7, 0x4b, 0x24, 0x53, 0xe5, 0xd2, 0x4f, 0xb0, 0x0b, 0x05, 0x15, 0x94,
    0xc1, 0x2c, 0xbd, 0xb6, 0xf0, 0xa8, 0x61, 0x29, 0x1f, 0x1a, 0x31, 0xee,
    0xfd, 0x1e, 0x56, 0xca, 0x12, 0x5e, 0x57, 0xbe, 0xa7, 0x9a, 0xef, 0xb6,
    0x1e, 0xc5, 0xa9, 0x44, 0x6a, 0x47, 0xf1, 0x45, 0xa0, 0x98, 0x9a, 0x0f,
    0x21, 0x5b, 0x09, 0xbe, 0x32, 0xe6, 0x9e, 0x9e, 0xec, 0xe2, 0x2d, 0x9b,
    0x4a, 0x64, 0x32, 0xe5, 0x9c, 0xd2, 0xb8, 0x29, 0xc7, 0xd4, 0xe6, 0xe8,
    0xd7, 0xbe, 0xf1, 0x9c, 0xe8, 0x6a, 0x63, 0xd3, 0x0f, 0x18, 0xd6, 0x9a,
    0xcb, 0x10, 0xef, 0xe3, 0xcc, 0xe5, 0x99, 0x63, 0xcd, 0x5e, 0xce, 0xbf,
    0xf5, 0x06, 0x31, 0x05, 0xda, 0x1b, 0xe9, 0xdd, 0x1e, 0x00, 0xd3, 0xfa,
    0x1e, 0x55, 0x07, 0xaf, 0x1f, 0x9b, 0xc7, 0x32, 0x0e, 0xeb, 0x4b, 0xa7,
    0x57, 0xf8, 0xd6, 0xcc, 0x69, 0x4c, 0x6c, 0xac, 0xc0, 0x45, 0x26, 0xa2,
    0x58, 0x5f, 0x02, 0xef, 0x37, 0x5c, 0x62, 0xda, 0x58, 0x06, 0x0b, 0x07,
    0x29, 0xb4, 0xa3, 0x46, 0x49, 0xe0, 0xe5, 0xd4, 0xbc, 0x4f, 0xe0, 0xe2,
    0x27, 0xad, 0xc4, 0xec, 0x52, 0x36, 0x6a, 0x0c, 0xf3, 0xa8, 0x7d, 0x45,
    0xfc, 0x23, 0x0f, 0xdd, 0x4e, 0xd4, 0x22, 0xa9, 0x7f, 0x99, 0xd7, 0xf8,
    0x95, 0x98, 0xce, 0xea, 0xe2, 0xab, 0xf8, 0x64, 0x3f, 0x23, 0xda, 0xc2,
    0x28, 0x19, 0x40, 0x32, 0x5f, 0x34, 0xb9, 0x95, 0x0d, 0x2f, 0xef, 0xc4,
    0xf7, 0xe1, 0x59, 0x3c, 0x0e, 0xc4, 0x66, 0x08, 0xb0, 0x07, 0x98, 0x69,
    0xb9, 0x56, 0x55, 0xb8, 0x5e, 0x21, 0xdd, 0x0e, 0xaf, 0x52, 0x9a, 0x1b,
    0x30, 0x6d, 0xf0, 0xd1, 0x51, 0x66, 0xf7, 0x7a, 0x49, 0x2b, 0xc3, 0xae,
    0x38, 0xa4, 0x51, 0x51, 0x54, 0xee, 0xe6, 0x45, 0x69, 0xcf, 0x4a, 0x24,
    0x2c, 0xfb, 0xe3, 0xbd, 0xe9, 0xdc, 0xe2, 0xfe, 0x30, 0xff, 0x24, 0xda,
    0x96, 0xee, 0xe4, 0xb4, 0xd5, 0x4b, 0xc0, 0xeb, 0x1e, 0xd9, 0xa1, 0x1e,
    0xe6, 0xb6, 0x47, 0x02, 0x35, 0x45, 0x50, 0x55, 0xe5, 0x0c, 0x04, 0xe2,
    0xc0, 0xde, 0x09, 0xb0, 0x19, 0xbc, 0xe8, 0x48, 0xd7, 0xb3, 0x29, 0x96,
    0x01, 0x09, 0xa8, 0xf4, 0x69, 0x1a, 0x08, 0xf3, 0x9a, 0xca, 0xfc, 0x5f,
    0xa2, 0x44, 0xa1, 0x9e, 0x9d, 0xef, 0xe9, 0xd0, 0xd3, 0xaa, 0x47, 0xb8,
    0xd9, 0xb3, 0xb9, 0x50, 0x29, 0x3e, 0x96, 0x0f, 0x0e, 0xe1, 0xd9, 0xa8,
    0xb9, 0x49, 0x69, 0x33, 0xc2, 0xca, 0xdd, 0xa5, 0xcd, 0x0e, 0x4a, 0x2d,
    0xbe, 0x97, 0x51, 0x23, 0xed, 0xa8, 0x30, 0xdc, 0xda, 0xf4, 0x53, 0x69,
    0x41, 0xe3, 0xa4, 0xaa, 0xfa, 0xf9, 0xa4, 0x36, 0xff, 0x19, 0x5b, 0xf3,
    0x23, 0x03, 0xa6, 0x49, 0xec, 0x4d, 0x70, 0x62, 0xc6, 0x3d, 0x49, 0x08,
    0x42, 0xa0, 0x3e, 0x97, 0x2f, 0xcc, 0x1e, 0xb1, 0x67, 0xd0, 0x27, 0xf1,
    0x2c, 0xa6, 0xcc, 0xbd, 0x73, 0x6c, 0x53, 0x79, 0x00, 0x03, 0xe9, 0x19,
    0x46, 0xf0, 0x73, 0x57, 0xd2, 0x29, 0x6a, 0xe3, 0x60, 0xbb, 0x3a, 0xe3,
    0x62, 0xd3, 0xc5, 0x1e, 0x2e, 0xe5, 0x98, 0xf8, 0x60, 0xab, 0x5a, 0xb1,
    0x42, 0x3e, 0xf7, 0x0e, 0x9c, 0xa1, 0xca, 0x28, 0x36, 0xaa, 0x9d, 0xc3,
    0xbd, 0xe5, 0xd7, 0x09, 0xb4, 0x62, 0xa6, 0x43, 0xa0, 0xb4, 0xd3, 0x00,
    0xfe, 0x1c, 0x3a, 0x31, 0xf3, 0x74, 0x4c, 0x77, 0x2f, 0x48, 0x0e, 0x5b,
    0x53, 0xac, 0x60, 0x79, 0x6a, 0xae, 0x33, 0x1b, 0x39, 0x71, 0x42, 0x0e,
    0x29, 0xed, 0xa5, 0xd2, 0x11, 0x4c, 0xef, 0xba, 0xb1, 0x58, 0x96, 0xa7,
    0xba, 0x16, 0x0c, 0x29, 0x12, 0xa6, 0xe7, 0x09, 0x96, 0xcc, 0x1b, 0x1f,
    0xea, 0xf6, 0x9a, 0x0d, 0x2b, 0x11, 0x4b, 0x1e, 0x1e, 0xda, 0xe1, 0xa5,
    0x63, 0xd5, 0xb8, 0x12, 0x0f, 0x5f, 0x59, 0xe6, 0x45, 0xa1, 0x64, 0xc6,
    0xac, 0x61, 0xd5, 0xd5, 0xd9, 0x06, 0xfc, 0xb2, 0xe5, 0x53, 0x22, 0x12,
    0x42, 0xe8, 0x5b, 0xf1, 0x15, 0x2b, 0x56, 0xbf, 0xca, 0xbb, 0x95, 0x43,
    0x64, 0x5d, 0xb4, 0x91, 0xf1, 0x44, 0x3b, 0xe0, 0x08, 0xcc, 0x18, 0xd2,
    0xac, 0x2d, 0x54, 0x22, 0x1b, 0x0e, 0xb2, 0x5b, 0x0f, 0xc9, 0x70, 0x22,
    0x46, 0x53, 0x6c, 0xcf, 0x6d, 0x53, 0xf8, 0x51, 0xd5, 0x59, 0x39, 0xd9,
    0x61, 0x19, 0x49, 0x66, 0xc4, 0x50, 0x5c, 0xcd, 0x49, 0xcb, 0x24, 0xaa,
    0xcc, 0xf9, 0xb5, 0x12, 0x56, 0xd9, 0x0b, 0xad, 0x5c, 0x9e, 0x00, 0x08,
    0xea, 0x4b, 0xca, 0x98, 0x42, 0xc3, 0x3b, 0x63, 0xc1, 0xbf, 0x74, 0x36,
    0x51, 0x67, 0x5f, 0x15, 0x63, 0x51, 0xf0, 0x0a, 0x44, 0x77, 0x27, 0x03,
    0xf4, 0xeb, 0xa7, 0xd4, 0x4e, 0x48, 0xf6, 0x61, 0x05, 0xe9, 0x45, 0xae,
    0x6b, 0x38, 0x01, 0xd5, 0x0e, 0x55, 0x65, 0x39, 0x46, 0x55, 0xf4, 0xb6,
    0x34, 0x36, 0x30, 0xb9, 0xc7, 0xbd, 0x48, 0x4a, 0x5b, 0x3f, 0xc4, 0xdf,
    0x8d, 0xf2, 0xe0, 0x26, 0xaa, 0x18, 0xe9, 0xb3, 0xfc, 0xcf, 0x55, 0xa9,
    0x11, 0xe8, 0x15, 0xe8, 0xc2, 0x04, 0x33, 0x3e, 0x4b, 0xee, 0x2b, 0x31,
    0x59, 0x92, 0xba, 0x11, 0xf2, 0x32, 0x1e, 0xf3, 0x66, 0x60, 0x02, 0xd7,
    0x31, 0x59, 0xb2, 0x5f, 0x19, 0x1b, 0x2a, 0x05, 0xe3, 0xce, 0xde, 0x29,
    0xde, 0x55, 0x2e, 0x6c, 0x14, 0x2b, 0xe6, 0xb2, 0xbf, 0x0d, 0xb3, 0xa2,
    0x02, 0xbe, 0x66, 0x18, 0xa2, 0x38, 0xa2, 0x1b, 0x66, 0xe5, 0xff, 0xff,
    0x04, 0x00, 0x00, 0x00, 0x00, 0x01, 0x00, 0x00, 0x10, 0x00, 0x00, 0x00,
    0x00, 0x00, 0x00, 0x00, 0x00, 0x00, 0x00, 0x00, 0x16, 0x00, 0x00, 0x00,
    0x34, 0x00, 0x00, 0x00, 0xf1, 0xff, 0xff, 0xff, 0x00, 0x00, 0x00, 0x00,
    0x00, 0x00, 0x00, 0x00, 0xe6, 0xff, 0xff, 0xff, 0xe5, 0xff, 0xff, 0xff,
    0x1b, 0x00, 0x00, 0x00, 0xf7, 0xff, 0xff, 0xff, 0x00, 0x00, 0x00, 0x00,
    0x00, 0x00, 0x00, 0x00, 0x00, 0x00, 0x00, 0x00, 0xf8, 0xff, 0xff, 0xff,
    0xe3, 0xff, 0xff, 0xff, 0xe5, 0xff, 0xff, 0xff, 0x29, 0x00, 0x00, 0x00,
    0x14, 0x00, 0x00, 0x00, 0x16, 0x00, 0x00, 0x00, 0x00, 0x00, 0x00, 0x00,
    0x12, 0x00, 0x00, 0x00, 0xf8, 0xff, 0xff, 0xff, 0xf3, 0xff, 0xff, 0xff,
    0x0a, 0x00, 0x00, 0x00, 0x04, 0x00, 0x00, 0x00, 0xf8, 0xff, 0xff, 0xff,
    0xf0, 0xff, 0xff, 0xff, 0x00, 0x00, 0x00, 0x00, 0x00, 0x00, 0x00, 0x00,
    0xf9, 0xff, 0xff, 0xff, 0x00, 0x00, 0x00, 0x00, 0x1e, 0x00, 0x00, 0x00,
    0x00, 0x00, 0x00, 0x00, 0x51, 0x00, 0x00, 0x00, 0xef, 0xff, 0xff, 0xff,
    0xfb, 0xff, 0xff, 0xff, 0x04, 0x00, 0x00, 0x00, 0xf9, 0xff, 0xff, 0xff,
    0x00, 0x00, 0x00, 0x00, 0xed, 0xff, 0xff, 0xff, 0x00, 0x00, 0x00, 0x00,
    0x00, 0x00, 0x00, 0x00, 0x00, 0x00, 0x00, 0x00, 0x26, 0x00, 0x00, 0x00,
    0x00, 0x00, 0x00, 0x00, 0x27, 0x00, 0x00, 0x00, 0x00, 0x00, 0x00, 0x00,
    0x00, 0x00, 0x00, 0x00, 0x2c, 0x00, 0x00, 0x00, 0x00, 0x00, 0x00, 0x00,
    0x00, 0x00, 0x00, 0x00, 0x08, 0x00, 0x00, 0x00, 0xef, 0xff, 0xff, 0xff,
    0x23, 0x00, 0x00, 0x00, 0x2a, 0x00, 0x00, 0x00, 0xec, 0xff, 0xff, 0xff,
    0x2d, 0x00, 0x00, 0x00, 0x10, 0x00, 0x00, 0x00, 0xdd, 0xff, 0xff, 0xff,
    0xea, 0xff, 0xff, 0xff, 0x17, 0x00, 0x00, 0x00, 0xfc, 0xff, 0xff, 0xff,
    0x72, 0xe6, 0xff, 0xff, 0x04, 0x00, 0x00, 0x00, 0x00, 0x08, 0x00, 0x00,
    0xcf, 0x3b, 0xc4, 0x38, 0x10, 0x44, 0x4f, 0x41, 0x2a, 0x04, 0x15, 0x34,
    0x3d, 0x41, 0x20, 0x2c, 0xd7, 0x03, 0xb4, 0x45, 0x06, 0x02, 0xb8, 0xb7,
    0x25, 0xdf, 0x13, 0x50, 0x1c, 0xe0, 0xf0, 0x24, 0xfa, 0xc8, 0xd9, 0xf1,
    0xb2, 0x1e, 0xbc, 0x2a, 0x35, 0xcb, 0xf7, 0x4f, 0x06, 0xeb, 0x46, 0xdd,
    0xc0, 0x09, 0xb8, 0x4b, 0x43, 0xe7, 0x0a, 0xcf, 0x03, 0xc8, 0xf0, 0x41,
    0xf4, 0xc7, 0xe8, 0xaf, 0xb0, 0x43, 0x0e, 0xd7, 0x4c, 0xe2, 0x3f, 0x1b,
    0xb3, 0xb8, 0xac, 0x28, 0xce, 0x20, 0xdc, 0x14, 0x47, 0xe1, 0x00, 0x3a,
    0xe0, 0xfb, 0xa7, 0xd8, 0xee, 0xd7, 0x04, 0x34, 0xfe, 0xff, 0x1a, 0xb4,
    0x3b, 0xf8, 0x29, 0x46, 0xc9, 0x2d, 0x44, 0x27, 0xe3, 0x39, 0xee, 0x4d,
    0xb8, 0xd0, 0xba, 0x38, 0x17, 0xbc, 0x14, 0xe0, 0x27, 0x42, 0xdb, 0xab,
    0xb7, 0x18, 0xdf, 0xc9, 0xdf, 0xe7, 0xff, 0xb0, 0x5a, 0x2a, 0xf8, 0x06,
    0xfa, 0xd9, 0xd2, 0x17, 0xd2, 0x28, 0xfc, 0xb9, 0xd3, 0x50, 0x0c, 0xce,
    0x46, 0xbf, 0x59, 0x18, 0x42, 0x25, 0x44, 0xcd, 0x5a, 0xf0, 0x47, 0xe7,
    0xdd, 0x2d, 0xf2, 0x1f, 0x08, 0x39, 0x51, 0x02, 0xf6, 0xd1, 0xd1, 0xd1,
    0xb0, 0xd8, 0xc0, 0x1a, 0xf2, 0x43, 0xca, 0x2c, 0x23, 0xbc, 0xe4, 0xf3,
    0xd5, 0x4d, 0xd8, 0x47, 0x32, 0xbc, 0xb7, 0x58, 0xb8, 0x41, 0x0b, 0xe3,
    0xfa, 0xe0, 0xc0, 0x1a, 0xdc, 0x35, 0x1c, 0x39, 0x05, 0xc4, 0x0e, 0x02,
    0xf4, 0xb5, 0xbd, 0xb7, 0xb7, 0x15, 0xe7, 0x2a, 0xf1, 0xd2, 0x27, 0xf2,
    0x4e, 0x02, 0x2b, 0x4c, 0x2e, 0x41, 0xb2, 0xc0, 0x19, 0xb1, 0xbb, 0x17,
    0xfe, 0x3c, 0x31, 0xb7, 0xd7, 0x52, 0x41, 0x42, 0x51, 0xf1, 0xd5, 0xfa,
    0x1a, 0x3a, 0xfd, 0xe7, 0x20, 0xf9, 0xf0, 0x46, 0x19, 0xf5, 0xad, 0xc5,
    0xfb, 0x57, 0xd5, 0xfe, 0xeb, 0xc8, 0xe4, 0x05, 0xf3, 0x44, 0xde, 0x09,
    0x45, 0x0f, 0x0f, 0xdf, 0xb9, 0x41, 0x38, 0x04, 0xfc, 0x13, 0xb1, 0x4b,
    0xdc, 0xba, 0xc0, 0xca, 0x37, 0x1d, 0xe2, 0xc9, 0xfe, 0x35, 0xe7, 0x37,
    0x1f, 0x2f, 0x3f, 0xfc, 0x05, 0xf7, 0x33, 0x0c, 0xff, 0xb6, 0xf6, 0xd5,
    0xe2, 0x46, 0xf9, 0x4b, 0xcd, 0xb3, 0xb2, 0x29, 0xe3, 0xd7, 0xf8, 0xd1,
    0xfd, 0xc0, 0x3c, 0xe3, 0xc7, 0xcb, 0xec, 0xfe, 0xb6, 0xe4, 0xed, 0x9f,
    0xf2, 0x49, 0xe1, 0xd4, 0x44, 0xfd, 0x08, 0x4c, 0xc5, 0xd6, 0x4b, 0x12,
    0x4a, 0x1d, 0x37, 0x00, 0x27, 0xd8, 0x22, 0xc9, 0xde, 0x89, 0x1f, 0xbc,
    0xb1, 0xbd, 0xef, 0xf0, 0xb9, 0x0a, 0x29, 0xe0, 0x07, 0x47, 0x4e, 0xdd,
    0xe0, 0x2f, 0x03, 0x30, 0x35, 0xce, 0x21, 0xd0, 0x2b, 0x48, 0xd6, 0xe3,
    0x30, 0xec, 0x00, 0x29, 0x07, 0xf1, 0x50, 0xcf, 0xf7, 0x0d, 0xe1, 0x06,
    0xf2, 0xbd, 0x22, 0x2e, 0x28, 0x0a, 0x25, 0x34, 0x31, 0x2b, 0x11, 0xb3,
    0x30, 0x18, 0x4f, 0x1e, 0xb2, 0x1c, 0x2c, 0x46, 0xf5, 0xfb, 0x15, 0xe5,
    0x47, 0xe0, 0x26, 0x4d, 0x48, 0x2e, 0x13, 0xd5, 0xbc, 0xc0, 0x4f, 0xb9,
    0x39, 0xea, 0xd4, 0x22, 0x50, 0xf9, 0x25, 0x29, 0x25, 0xc8, 0x44, 0xcb,
    0xd1, 0xc3, 0x0a, 0xff, 0x1b, 0xc6, 0xb8, 0xd2, 0xb4, 0xc7, 0xd1, 0x33,
    0x15, 0xdc, 0x16, 0xf9, 0xc0, 0xb8, 0x44, 0xdd, 0x0b, 0xf3, 0xc2, 0x12,
    0xfa, 0xd1, 0x17, 0x0d, 0xba, 0xbd, 0x26, 0x3a, 0xcf, 0x1f, 0x20, 0xfb,
    0xdd, 0x31, 0x10, 0x09, 0xea, 0x24, 0xde, 0xe5, 0xea, 0xcf, 0x25, 0x4c,
    0xc8, 0xb6, 0x42, 0x1d, 0x41, 0x16, 0xd7, 0xba, 0x3c, 0x36, 0xc1, 0xe9,
    0xc1, 0xda, 0xb9, 0xe0, 0xc1, 0x2b, 0xeb, 0xf2, 0xfd, 0xd0, 0xf2, 0x41,
    0x00, 0x52, 0x0b, 0x24, 0x2e, 0x32, 0xee, 0x18, 0xce, 0xe0, 0xe7, 0x38,
    0x29, 0xe1, 0x3b, 0x29, 0x0e, 0x46, 0xf7, 0xc1, 0x1e, 0xb8, 0xda, 0xf9,
    0x0b, 0x01, 0x04, 0xb5, 0xf4, 0xda, 0x09, 0x0a, 0xbd, 0x02, 0x3a, 0x04,
    0xff, 0x34, 0xd4, 0xf4, 0xdf, 0x43, 0x4f, 0xfa, 0xed, 0x1e, 0xee, 0xc5,
    0x03, 0x30, 0xdf, 0x42, 0x15, 0xad, 0x0e, 0xeb, 0x10, 0x1d, 0x01, 0x16,
    0xc6, 0x04, 0xa9, 0xf0, 0x03, 0x03, 0x15, 0x00, 0x37, 0xf6, 0x0b, 0xe5,
    0x1e, 0xdb, 0x4a, 0xe2, 0xc7, 0x26, 0xd7, 0xc9, 0xf5, 0x3f, 0xcf, 0x48,
    0xe2, 0x08, 0xce, 0x2a, 0xff, 0xd0, 0xe9, 0xc5, 0xe2, 0xe5, 0xdf, 0xf7,
    0x43, 0xed, 0xcd, 0xf4, 0x45, 0xff, 0x3d, 0x25, 0x19, 0x41, 0xae, 0xfd,
    0xc2, 0x3e, 0xbe, 0xc7, 0xb4, 0x31, 0x2f, 0xde, 0x37, 0xd1, 0xee, 0x13,
    0x08, 0xb0, 0xe8, 0x20, 0x49, 0x3c, 0xd5, 0xca, 0x02, 0xf0, 0x32, 0xe3,
    0xb0, 0x2a, 0xc9, 0xf7, 0x3b, 0xc8, 0x41, 0x38, 0x1d, 0xb5, 0x3b, 0xf2,
    0xcb, 0x03, 0x45, 0x04, 0x20, 0x11, 0x06, 0xe7, 0x2d, 0x2f, 0x06, 0xdb,
    0x58, 0xd1, 0x01, 0xdb, 0x02, 0xa9, 0x33, 0xd5, 0xbf, 0x03, 0x12, 0xba,
    0x14, 0x4b, 0x1a, 0xd5, 0x0f, 0xc7, 0x03, 0x40, 0xda, 0x03, 0x4b, 0xdf,
    0xb0, 0x3a, 0xd9, 0x42, 0xf5, 0x2f, 0x48, 0x48, 0xee, 0x24, 0xff, 0x1e,
    0x37, 0x1a, 0x55, 0xdc, 0xbe, 0x13, 0x54, 0x3a, 0x07, 0xb4, 0xaf, 0xf1,
    0xf9, 0x15, 0x4a, 0xfd, 0xd1, 0x39, 0x21, 0x13, 0x4f, 0x42, 0x03, 0xf0,
    0xe4, 0x28, 0xf3, 0x4a, 0xd7, 0xf8, 0x57, 0x03, 0xd0, 0x8e, 0xc9, 0x46,
    0x1a, 0x1c, 0xc4, 0xbd, 0xba, 0xfd, 0xd7, 0x7f, 0x47, 0x3e, 0x35, 0x56,
    0xcf, 0x3a, 0xf9, 0xb5, 0x4d, 0x25, 0x04, 0x46, 0xfe, 0xb6, 0x44, 0x2f,
    0xc1, 0xba, 0x39, 0x31, 0x4e, 0x38, 0x5d, 0x05, 0x06, 0x1c, 0x3a, 0x09,
    0xaf, 0xb4, 0x11, 0x0d, 0xbe, 0xe9, 0xb5, 0xbc, 0xcd, 0x43, 0x37, 0x37,
    0x3c, 0x10, 0xb7, 0x32, 0x12, 0xd7, 0x37, 0xe8, 0x42, 0x31, 0xce, 0x38,
    0x27, 0x52, 0xe0, 0x48, 0x4a, 0xcf, 0xc8, 0x0d, 0x48, 0xe7, 0x13, 0x72,
    0xc8, 0xdd, 0x08, 0x26, 0xc7, 0x39, 0x08, 0x45, 0xde, 0xb3, 0xb8, 0x45,
    0xc7, 0xd6, 0x1b, 0xaf, 0x34, 0x1b, 0xea, 0xbc, 0x00, 0x32, 0x24, 0xf6,
    0xb2, 0xf5, 0x09, 0xc4, 0xe4, 0x3e, 0xe0, 0xad, 0xa2, 0xe1, 0x2a, 0x4c,
    0x53, 0x3b, 0x46, 0x5b, 0x20, 0xf1, 0x4b, 0xf6, 0x2e, 0xec, 0xe3, 0x46,
    0xbb, 0x02, 0x56, 0xd2, 0x4b, 0x10, 0x3e, 0xd7, 0x48, 0xe9, 0x05, 0xfe,
    0xc5, 0x1b, 0x24, 0xb8, 0xd9, 0xea, 0xb7, 0xe4, 0x41, 0xef, 0x41, 0xb1,
    0xd9, 0x07, 0x25, 0x2a, 0x26, 0xd7, 0x0e, 0xb3, 0x0c, 0x16, 0xae, 0xe0,
    0x2a, 0xb5, 0xbf, 0xfc, 0x45, 0xc1, 0x2a, 0x48, 0x51, 0x45, 0xf2, 0x33,
    0xd5, 0x4b, 0xca, 0x2b, 0xed, 0x23, 0xda, 0xb9, 0xb0, 0x4a, 0xf5, 0x38,
    0x3d, 0x11, 0xb7, 0xce, 0xbe, 0xda, 0x09, 0x4c, 0xf5, 0x29, 0xb3, 0xc7,
    0xbb, 0xaf, 0xfc, 0xef, 0xbf, 0x3b, 0x48, 0xee, 0xfb, 0x1f, 0x1f, 0xff,
    0xf1, 0xc9, 0xe6, 0xc8, 0xb4, 0x30, 0xd3, 0x0a, 0x08, 0x4b, 0xec, 0xfe,
    0x12, 0xd7, 0xb6, 0xd6, 0x44, 0x4e, 0xe9, 0x00, 0x3f, 0x44, 0xe7, 0x00,
    0x36, 0x33, 0x31, 0xc1, 0xf3, 0x45, 0xde, 0x26, 0xc9, 0xd1, 0x49, 0x44,
    0x2c, 0xc8, 0x40, 0xae, 0xbc, 0xf2, 0x05, 0xf7, 0xaf, 0xc5, 0xdb, 0x0c,
    0xe4, 0x47, 0xe6, 0xdc, 0xdd, 0x1f, 0x33, 0x45, 0x22, 0xc8, 0xfb, 0xc7,
    0x28, 0x17, 0xff, 0x28, 0x2f, 0xf3, 0xbe, 0xfa, 0xc5, 0xc3, 0xba, 0x0f,
    0x36, 0xe8, 0x03, 0x30, 0xd8, 0x16, 0xcd, 0x27, 0x18, 0xbf, 0xea, 0xe4,
    0xd9, 0x0b, 0x10, 0xb1, 0x0f, 0x10, 0xd0, 0xb3, 0xb3, 0x14, 0x1c, 0xbc,
    0x41, 0xe8, 0xf8, 0xc2, 0xef, 0xe2, 0x35, 0xce, 0x05, 0x4c, 0xf7, 0xe2,
    0xf6, 0x47, 0xda, 0x1c, 0xf7, 0xdb, 0xe8, 0x0a, 0x50, 0x16, 0x44, 0x30,
    0x39, 0x46, 0x28, 0x14, 0xfb, 0x05, 0x05, 0x22, 0x42, 0xe8, 0x10, 0x3b,
    0xfd, 0xe4, 0xce, 0xe5, 0x07, 0x00, 0xbe, 0xef, 0x39, 0xde, 0xf4, 0xd9,
    0xbb, 0xe5, 0xe1, 0xed, 0x33, 0xae, 0x50, 0x2b, 0xf6, 0x39, 0x3c, 0xb1,
    0xc5, 0xee, 0x2f, 0x42, 0xb8, 0x08, 0xf0, 0x32, 0xbd, 0x1f, 0xae, 0xb4,
    0xe5, 0xbd, 0xcb, 0x0f, 0x1f, 0x24, 0x32, 0x05, 0xb5, 0xff, 0x2a, 0x0f,
    0xd6, 0x47, 0x17, 0xe3, 0xd6, 0xe4, 0xf0, 0x37, 0x14, 0xe0, 0x27, 0xb3,
    0xd8, 0x20, 0xbc, 0xc7, 0xda, 0x00, 0x18, 0xc6, 0xe0, 0x1a, 0x29, 0x12,
    0x4d, 0xb1, 0x01, 0x45, 0xe9, 0x48, 0xda, 0x27, 0xb9, 0xe2, 0xc9, 0xcd,
    0x3b, 0x00, 0x21, 0x22, 0xdf, 0xc6, 0xb1, 0x3f, 0xbd, 0x02, 0xe5, 0xbf,
    0xb5, 0xee, 0x03, 0xed, 0x0e, 0x26, 0x28, 0x28, 0x17, 0x1b, 0xff, 0xf6,
    0xf9, 0xe3, 0x4f, 0xc8, 0xb5, 0x3b, 0xb7, 0x0b, 0xef, 0xae, 0xc9, 0xcd,
    0x48, 0x2f, 0x57, 0xd9, 0x0c, 0x3d, 0xfe, 0xe3, 0x3c, 0x23, 0x14, 0x51,
    0xaf, 0xf2, 0xef, 0xf4, 0x30, 0xad, 0x0d, 0xb5, 0xd0, 0x34, 0x1f, 0x39,
    0xdf, 0xc6, 0x47, 0xa4, 0x1c, 0x35, 0x3e, 0x1a, 0xfa, 0x07, 0x2f, 0x38,
    0x05, 0xda, 0x10, 0xda, 0xf3, 0xc6, 0x0d, 0xce, 0x06, 0x38, 0x08, 0xeb,
    0xcb, 0x31, 0xfa, 0xfd, 0x0b, 0xcf, 0xb4, 0x33, 0x06, 0x31, 0x1a, 0x00,
    0x1a, 0xbb, 0x27, 0xb2, 0x4a, 0x01, 0x4b, 0x3f, 0xb2, 0xc0, 0x1b, 0xb7,
    0x03, 0x3b, 0x20, 0xf8, 0x40, 0x30, 0x44, 0x2d, 0x3c, 0x3f, 0xec, 0xcd,
    0xc4, 0x11, 0x02, 0xcf, 0xc4, 0x12, 0xae, 0xf9, 0xb9, 0x49, 0xd2, 0x39,
    0x4c, 0xf5, 0x07, 0xcd, 0x1a, 0xd6, 0x27, 0x00, 0xcd, 0xd2, 0xdf, 0xd3,
    0xf3, 0xe9, 0x15, 0x4a, 0x42, 0xed, 0x3f, 0x23, 0x22, 0xc2, 0x19, 0x46,
    0xd1, 0x0a, 0x1d, 0x26, 0x03, 0x65, 0xfb, 0x37, 0xbe, 0x45, 0xd8, 0xca,
    0xb9, 0xba, 0x18, 0x2e, 0xb8, 0x4f, 0x3d, 0x30, 0x36, 0x13, 0xf8, 0x20,
    0xf9, 0xf4, 0xe5, 0x18, 0x4a, 0x25, 0x3f, 0xf0, 0x2b, 0xd0, 0x1e, 0xd3,
    0xb6, 0xde, 0x1b, 0x26, 0x47, 0x3e, 0xc5, 0x36, 0x39, 0x0d, 0xea, 0xb7,
    0x10, 0x09, 0x06, 0x47, 0xf8, 0x47, 0xe8, 0xc5, 0xd4, 0x2b, 0x0f, 0xc4,
    0x10, 0x17, 0xfa, 0xd6, 0x2d, 0x26, 0xed, 0x1c, 0xe2, 0x05, 0x4d, 0xeb,
    0x34, 0x30, 0xaa, 0x11, 0xcc, 0x42, 0x05, 0x4e, 0x45, 0xd7, 0xfa, 0xea,
    0xd2, 0x16, 0x3d, 0x47, 0xfa, 0xaa, 0x3f, 0x40, 0xaa, 0x28, 0x3e, 0x24,
    0xd6, 0x44, 0xd7, 0xb0, 0x06, 0xb4, 0x24, 0x10, 0xc6, 0x1c, 0x41, 0x17,
    0x46, 0x4a, 0x51, 0x21, 0x48, 0xe5, 0x1a, 0x33, 0xd6, 0x32, 0xd9, 0xe4,
    0x41, 0x0e, 0xbc, 0xb2, 0xb2, 0xdd, 0xc2, 0xd2, 0xca, 0xbf, 0xd2, 0xf6,
    0x4b, 0xe5, 0x4d, 0xba, 0x0d, 0x35, 0x03, 0xec, 0x2a, 0x26, 0x29, 0xbc,
    0xfd, 0x41, 0x32, 0xb6, 0x06, 0x26, 0x00, 0x0a, 0xf9, 0xda, 0x2c, 0x0e,
    0x1e, 0x3e, 0xb5, 0xec, 0x38, 0xb4, 0xfe, 0xb5, 0x35, 0xd0, 0xd2, 0x40,
    0xad, 0xc8, 0x15, 0x36, 0xf3, 0xef, 0xdb, 0x0f, 0x18, 0x49, 0xda, 0x2c,
    0xe8, 0xe8, 0xd8, 0x11, 0xe2, 0x4f, 0xca, 0x0b, 0xce, 0xca, 0x18, 0xd2,
    0xe3, 0x50, 0xe7, 0xe5, 0xdd, 0xbe, 0x34, 0x32, 0xc0, 0x4b, 0x4a, 0xcd,
    0xbd, 0xf0, 0xc0, 0xfe, 0xbe, 0xee, 0x2e, 0xed, 0xcc, 0xb4, 0x05, 0xbf,
    0x20, 0xb4, 0xf4, 0x08, 0x3d, 0xf9, 0x46, 0xbd, 0xb1, 0x33, 0xd9, 0x2a,
    0x3d, 0xd7, 0xb1, 0x4f, 0xcc, 0x46, 0xfc, 0x10, 0xe1, 0xd1, 0x04, 0xf7,
    0xdb, 0x39, 0x08, 0xf0, 0xbb, 0xe0, 0xca, 0xd3, 0x3b, 0x21, 0xe8, 0x04,
    0xf2, 0xf6, 0xfb, 0x47, 0xda, 0x28, 0xdc, 0x1e, 0xbf, 0x19, 0x52, 0xd4,
    0xd6, 0xb1, 0xb3, 0x17, 0x4c, 0x46, 0xfa, 0x20, 0x1b, 0xb9, 0x2e, 0xb6,
    0x48, 0xbd, 0xeb, 0x35, 0xe9, 0x10, 0xaf, 0xcb, 0x43, 0x42, 0x35, 0x36,
    0x4c, 0x0f, 0x08, 0x4a, 0xb1, 0xb6, 0x0d, 0xde, 0xc3, 0xde, 0x00, 0xe3,
    0xd3, 0x16, 0xd0, 0xb7, 0xfa, 0xcf, 0xc4, 0xc9, 0x40, 0xcc, 0x04, 0x22,
    0xe2, 0xda, 0x22, 0x48, 0x00, 0x09, 0x10, 0x3c, 0xe6, 0xdc, 0x17, 0xf2,
    0xd3, 0xb3, 0x42, 0xb9, 0xc8, 0xb0, 0xda, 0x1a, 0x0c, 0xe7, 0x51, 0x08,
    0xef, 0x4d, 0xbb, 0xe8, 0xe9, 0xff, 0x3e, 0x0d, 0x48, 0xba, 0x21, 0xe1,
    0xe4, 0x0f, 0xd4, 0xe8, 0xb5, 0xfe, 0x23, 0xc0, 0xf6, 0xcf, 0x06, 0xf5,
    0x02, 0x29, 0xca, 0x25, 0x22, 0x17, 0xe4, 0xff, 0xd4, 0xb0, 0xed, 0xbc,
    0x18, 0xcf, 0xcd, 0xf5, 0xf2, 0x22, 0x20, 0xc2, 0xd5, 0xcc, 0x08, 0xc2,
    0x10, 0x27, 0x3c, 0x2c, 0x2f, 0xd9, 0xed, 0x27, 0xc1, 0xd4, 0x46, 0x16,
    0x45, 0x35, 0x3d, 0x15, 0xf8, 0x1b, 0xed, 0xee, 0x21, 0xd0, 0x23, 0xb2,
    0xc0, 0x27, 0xcc, 0xfb, 0x0d, 0xe1, 0xd9, 0xf1, 0x37, 0xb5, 0xd9, 0x3c,
    0xc0, 0x29, 0xe8, 0xaf, 0xb3, 0xeb, 0xb4, 0x2c, 0xcc, 0xf7, 0xb5, 0xc9,
    0x52, 0x37, 0xd1, 0xf4, 0xbc, 0xca, 0x1e, 0xf4, 0x37, 0xda, 0xd2, 0x1c,
    0xe3, 0x40, 0x19, 0x30, 0x0a, 0xb7, 0xbd, 0x44, 0xd5, 0x07, 0x40, 0xca,
    0xed, 0xeb, 0xb6, 0x19, 0x40, 0x32, 0x40, 0xc7, 0xd0, 0xcb, 0xb7, 0x48,
    0xfe, 0xb8, 0xd6, 0xf6, 0xc9, 0x19, 0x2c, 0xe5, 0x2c, 0xd8, 0xbc, 0xde,
    0xb6, 0x28, 0x1c, 0xfb, 0x0d, 0xd6, 0x31, 0x29, 0xb9, 0x38, 0x0d, 0xfa,
    0xdc, 0x1c, 0x04, 0x02, 0xc0, 0xe8, 0xe3, 0x39, 0xdd, 0xb6, 0xf8, 0x25,
    0x3d, 0xfa, 0xb3, 0x19, 0x44, 0x36, 0x44, 0x38, 0xac, 0x3f, 0xef, 0xb2,
    0xe1, 0x34, 0xf3, 0x18, 0x0b, 0x01, 0xce, 0xae, 0x40, 0xca, 0x3b, 0xb4,
    0x39, 0x01, 0xd0, 0xd9, 0xb3, 0xf2, 0xfd, 0x0f, 0xb0, 0x42, 0xf7, 0x2d,
    0xaf, 0xf0, 0x28, 0xe8, 0xb7, 0xe2, 0xe3, 0x08, 0xd9, 0x4a, 0x03, 0x1b,
    0xc9, 0xb4, 0xb1, 0xfb, 0xef, 0x16, 0x03, 0x0a, 0x37, 0xb5, 0x4b, 0xf2,
    0x03, 0xf4, 0xa9, 0xcd, 0x3c, 0xd9, 0xeb, 0x28, 0x2d, 0xef, 0x07, 0x10,
    0xb9, 0xda, 0x2a, 0xbd, 0xc8, 0x0f, 0xe1, 0xd1, 0xfa, 0x39, 0x2f, 0x4b,
    0x3d, 0x31, 0xd3, 0xc1, 0x4c, 0x01, 0x46, 0x41, 0xc2, 0x2c, 0xc0, 0x05,
    0x44, 0x49, 0xd2, 0x41, 0xaf, 0xe4, 0x06, 0x28, 0x06, 0xe2, 0x2c, 0x4c,
    0x0d, 0x46, 0xd3, 0xbd, 0x4b, 0x16, 0xcd, 0x4a, 0xf5, 0x2c, 0x13, 0xf1,
    0x2e, 0x2f, 0x38, 0x20, 0xc1, 0x0c, 0xf8, 0xcc, 0xc5, 0x30, 0xc9, 0x39,
    0xeb, 0xb9, 0x23, 0xc9, 0xdc, 0xc6, 0xff, 0xf5, 0xe7, 0xeb, 0xea, 0xe8,
    0x02, 0x0c, 0x49, 0xf0, 0xcb, 0xd1, 0xf5, 0xd4, 0xb1, 0x47, 0x4b, 0x59,
    0x2b, 0x0d, 0x4c, 0x44, 0x08, 0x0a, 0xbc, 0x31, 0x28, 0x59, 0x38, 0x2a,
    0x23, 0xc5, 0x20, 0xaa, 0xca, 0x3d, 0xdb, 0x39, 0xe5, 0x25, 0x01, 0xcb,
    0xbc, 0xe3, 0xb5, 0xb1, 0x06, 0xb5, 0xd1, 0xee, 0x43, 0xf8, 0x3e, 0xb6,
    0xec, 0x09, 0x33, 0xe3, 0xc4, 0x2d, 0xe8, 0xae, 0xf8, 0xee, 0xff, 0xc1,
    0x01, 0xbc, 0xd7, 0xda, 0x0a, 0x46, 0x04, 0x22, 0x43, 0xb6, 0x1c, 0x48,
    0x4a, 0x03, 0x4c, 0xef, 0xd7, 0xd6, 0xf7, 0xf1, 0xcd, 0x16, 0x19, 0xb0,
    0xf2, 0xc7, 0xdd, 0xba, 0x28, 0x24, 0xc6, 0x1e, 0x7e, 0xee, 0xff, 0xff,
    0x04, 0x00, 0x00, 0x00, 0x80, 0x00, 0x00, 0x00, 0x00, 0x00, 0x00, 0x00,
    0xf8, 0xff, 0xff, 0xff, 0x11, 0x00, 0x00, 0x00, 0xf7, 0xff, 0xff, 0xff,
    0xf9, 0xff, 0xff, 0xff, 0xf9, 0xff, 0xff, 0xff, 0xf6, 0xff, 0xff, 0xff,
    0x00, 0x00, 0x00, 0x00, 0xf5, 0xff, 0xff, 0xff, 0x00, 0x00, 0x00, 0x00,
    0x0b, 0x00, 0x00, 0x00, 0x1c, 0x00, 0x00, 0x00, 0x00, 0x00, 0x00, 0x00,
    0xe9, 0xff, 0xff, 0xff, 0x00, 0x00, 0x00, 0x00, 0x00, 0x00, 0x00, 0x00,
    0x00, 0x00, 0x00, 0x00, 0x00, 0x00, 0x00, 0x00, 0xf8, 0xff, 0xff, 0xff,
    0xfb, 0xff, 0xff, 0xff, 0x1f, 0x00, 0x00, 0x00, 0xf6, 0xff, 0xff, 0xff,
    0x00, 0x00, 0x00, 0x00, 0xf5, 0xff, 0xff, 0xff, 0x00, 0x00, 0x00, 0x00,
    0x00, 0x00, 0x00, 0x00, 0x00, 0x00, 0x00, 0x00, 0x00, 0x00, 0x00, 0x00,
    0xf9, 0xff, 0xff, 0xff, 0xf6, 0xff, 0xff, 0xff, 0x12, 0x00, 0x00, 0x00,
    0x00, 0x00, 0x00, 0x00, 0x0a, 0xef, 0xff, 0xff, 0x04, 0x00, 0x00, 0x00,
    0x00, 0x01, 0x00, 0x00, 0x32, 0x4d, 0xe8, 0x1a, 0xa8, 0xfa, 0x54, 0x4f,
    0xf9, 0x2f, 0xf8, 0xed, 0x36, 0xb7, 0xc1, 0xf8, 0x76, 0x22, 0xe9, 0x37,
    0xcb, 0x6a, 0xe4, 0x50, 0x96, 0x69, 0x74, 0x91, 0x96, 0xba, 0xcb, 0xa5,
    0x92, 0x74, 0xd2, 0xe2, 0x46, 0x84, 0x8a, 0x3b, 0xab, 0x12, 0x47, 0xde,
    0x32, 0xcd, 0x72, 0xc3, 0x98, 0x93, 0x04, 0x73, 0xc1, 0x53, 0xe2, 0x33,
    0x0a, 0x0a, 0x27, 0x7a, 0x29, 0x64, 0xa8, 0xf4, 0x2f, 0xb4, 0xed, 0x1d,
    0x7a, 0xf3, 0x9d, 0x1f, 0xa7, 0x51, 0xb9, 0x02, 0xaa, 0x3c, 0xaa, 0xd9,
    0xbe, 0x4e, 0x2e, 0x45, 0xe3, 0x17, 0x72, 0x8e, 0xe8, 0x9a, 0xf6, 0x75,
    0x86, 0x10, 0x10, 0xf2, 0x8b, 0x57, 0x4e, 0xa7, 0x72, 0x59, 0xfe, 0x4c,
    0xfe, 0x01, 0x66, 0x09, 0xc8, 0x54, 0xaf, 0xf5, 0xe2, 0xe2, 0x6e, 0x7d,
    0xdf, 0xf8, 0x6f, 0x8f, 0xc6, 0x1e, 0xd4, 0x8d, 0x81, 0x37, 0xb2, 0x6c,
    0xf6, 0x96, 0x91, 0xb2, 0x6a, 0xe0, 0x38, 0x9a, 0x5d, 0x76, 0xba, 0x85,
    0xf6, 0x63, 0xbd, 0xb0, 0x9e, 0x8f, 0xa5, 0x5e, 0xeb, 0xf7, 0x07, 0x6c,
    0x31, 0xa8, 0x08, 0x4a, 0x0c, 0x7c, 0x6d, 0xe3, 0x32, 0xef, 0x7c, 0x15,
    0x09, 0xef, 0xc8, 0xaf, 0xd3, 0x29, 0x66, 0x1a, 0xf9, 0xd7, 0x90, 0x34,
    0xdc, 0xd5, 0xb2, 0xb9, 0x68, 0xb3, 0xd2, 0x8f, 0x3b, 0x44, 0x86, 0x3a,
    0xba, 0x0b, 0x42, 0xe9, 0xa4, 0x68, 0xfc, 0x68, 0xb4, 0x03, 0x6b, 0x43,
    0xa3, 0xac, 0xd6, 0x73, 0x29, 0xc7, 0x4c, 0xba, 0x74, 0x63, 0x70, 0xb1,
    0x32, 0xe0, 0x12, 0x89, 0x8e, 0x6d, 0x12, 0x90, 0x3d, 0xf1, 0x5b, 0x32,
    0xdd, 0xa8, 0x2f, 0x04, 0xa6, 0x4b, 0x9f, 0x66, 0x43, 0x4d, 0x5a, 0xf6,
    0x9a, 0x7c, 0xc3, 0x75, 0xbc, 0x1d, 0x6f, 0xed, 0xbb, 0xc2, 0xc4, 0x60,
    0x2f, 0x65, 0x65, 0x87, 0xc5, 0xa7, 0x74, 0x47, 0x16, 0xf0, 0xff, 0xff,
    0x04, 0x00, 0x00, 0x00, 0x20, 0x00, 0x00, 0x00, 0x00, 0x00, 0x00, 0x00,
    0xfd, 0xff, 0xff, 0xff, 0x00, 0x00, 0x00, 0x00, 0x00, 0x00, 0x00, 0x00,
    0x00, 0x00, 0x00, 0x00, 0x13, 0x00, 0x00, 0x00, 0x17, 0x00, 0x00, 0x00,
    0xff, 0xff, 0xff, 0xff, 0x42, 0xf0, 0xff, 0xff, 0x04, 0x00, 0x00, 0x00,
    0x00, 0x01, 0x00, 0x00, 0x1d, 0x97, 0xfd, 0xb8, 0x1c, 0x1e, 0xa6, 0x20,
    0x6b, 0x2f, 0x4c, 0xfd, 0x30, 0x5d, 0x7d, 0x0f, 0xa4, 0x48, 0xf7, 0x60,
    0x58, 0xe6, 0xf3, 0x55, 0x02, 0x19, 0x5f, 0xc6, 0xd4, 0xae, 0xd2, 0xb3,
    0x3c, 0xcb, 0xce, 0xd6, 0xbc, 0x6c, 0x0b, 0x6b, 0xbc, 0xff, 0xa1, 0x3e,
    0x27, 0x35, 0xe9, 0xef, 0x44, 0xd6, 0x30, 0xb2, 0x3c, 0x68, 0xdd, 0x60,
    0x43, 0xe0, 0x56, 0x20, 0x10, 0xac, 0x16, 0x02, 0xb8, 0xad, 0xe2, 0x60,
    0x95, 0x0a, 0xd6, 0xa1, 0x5a, 0xa8, 0xa4, 0x94, 0x21, 0x09, 0xa8, 0x54,
    0x61, 0xa1, 0x5b, 0x95, 0xfa, 0xa4, 0xe0, 0xe4, 0xdd, 0x26, 0xbc, 0x43,
    0xdd, 0x57, 0xbd, 0xa7, 0xd0, 0xf5, 0x5d, 0x15, 0xa1, 0xe2, 0x60, 0x62,
    0x6c, 0x98, 0x49, 0x48, 0x1c, 0x49, 0x59, 0xae, 0x66, 0xe0, 0xa3, 0xfb,
    0x41, 0x6f, 0x24, 0x97, 0x3b, 0x1f, 0x31, 0xb5, 0x18, 0x04, 0xa7, 0xcd,
    0xb6, 0x2d, 0x2b, 0xf5, 0x67, 0x42, 0x38, 0x9b, 0x24, 0x40, 0x99, 0x45,
    0x66, 0x5f, 0x38, 0xa8, 0xa2, 0x6d, 0xd4, 0x9d, 0x41, 0x39, 0x51, 0xab,
    0xf7, 0x31, 0xbb, 0x46, 0x1b, 0xd4, 0x1a, 0x96, 0x60, 0xb6, 0x2a, 0xb5,
    0x19, 0xfb, 0x3f, 0x1b, 0x48, 0xff, 0xed, 0x3f, 0x97, 0x6c, 0xb9, 0x21,
    0xce, 0xe0, 0xda, 0x81, 0x55, 0x50, 0x65, 0x8e, 0x22, 0xd5, 0xc3, 0xa3,
    0xa0, 0xa4, 0x4a, 0xed, 0x59, 0xd2, 0xe2, 0x2c, 0x56, 0xef, 0x0c, 0xa6,
    0x93, 0x30, 0xe7, 0xf7, 0xe2, 0xb9, 0xe3, 0xa8, 0xe5, 0x6a, 0xb4, 0xfd,
    0xaa, 0x93, 0xf3, 0x5e, 0x51, 0x4d, 0xc5, 0x2b, 0x57, 0x11, 0x1c, 0x4c,
    0xd8, 0x98, 0x04, 0x3b, 0x20, 0x47, 0x25, 0xa1, 0xef, 0x26, 0x3b, 0x71,
    0x4f, 0xaf, 0x16, 0x56, 0xf4, 0x68, 0x0a, 0xf7, 0x31, 0xcf, 0xe4, 0xac,
    0x94, 0xb8, 0x0d, 0xdb, 0xd1, 0x25, 0x31, 0x4a, 0x4e, 0xf1, 0xff, 0xff,
    0x04, 0x00, 0x00, 0x00, 0x80, 0x00, 0x00, 0x00, 0x00, 0x00, 0x00, 0x00,
    0x13, 0x00, 0x00, 0x00, 0xed, 0xff, 0xff, 0xff, 0x00, 0x00, 0x00, 0x00,
    0x07, 0x00, 0x00, 0x00, 0x05, 0x00, 0x00, 0x00, 0x0e, 0x00, 0x00, 0x00,
    0x00, 0x00, 0x00, 0x00, 0x06, 0x00, 0x00, 0x00, 0x00, 0x00, 0x00, 0x00,
    0x00, 0x00, 0x00, 0x00, 0x04, 0x00, 0x00, 0x00, 0x11, 0x00, 0x00, 0x00,
    0x16, 0x00, 0x00, 0x00, 0x02, 0x00, 0x00, 0x00, 0x00, 0x00, 0x00, 0x00,
    0x02, 0x00, 0x00, 0x00, 0x05, 0x00, 0x00, 0x00, 0x1b, 0x00, 0x00, 0x00,
    0xfd, 0xff, 0xff, 0xff, 0xf1, 0xff, 0xff, 0xff, 0x13, 0x00, 0x00, 0x00,
    0x83, 0x00, 0x00, 0x00, 0x00, 0x00, 0x00, 0x00, 0x00, 0x00, 0x00, 0x00,
    0x00, 0x00, 0x00, 0x00, 0xf5, 0xff, 0xff, 0xff, 0x0a, 0x00, 0x00, 0x00,
    0x03, 0x00, 0x00, 0x00, 0x0d, 0x00, 0x00, 0x00, 0x00, 0x00, 0x00, 0x00,
    0x04, 0x00, 0x00, 0x00, 0xda, 0xf1, 0xff, 0xff, 0x04, 0x00, 0x00, 0x00,
    0x00, 0x08, 0x00, 0x00, 0x1c, 0xe5, 0xe9, 0xf6, 0xeb, 0xf4, 0x05, 0xca,
    0xc6, 0xe8, 0x29, 0xf7, 0x1b, 0x12, 0x17, 0x3a, 0x04, 0xf1, 0x1f, 0x01,
    0x0b, 0x2c, 0x7f, 0x0e, 0xc9, 0x0a, 0x30, 0x12, 0xdd, 0x0e, 0xef, 0x2c,
    0x33, 0xe8, 0x01, 0xf1, 0x2a, 0x3c, 0x0c, 0xfc, 0x07, 0xf2, 0xf7, 0x37,
    0xd3, 0x3f, 0xd2, 0x31, 0x27, 0xd4, 0xdc, 0xf6, 0xf7, 0x04, 0x08, 0x02,
    0x2d, 0xf2, 0xdc, 0xfe, 0x3f, 0x20, 0xec, 0x0a, 0xe4, 0x0d, 0x19, 0xfb,
    0xdc, 0x0f, 0x07, 0x17, 0xd2, 0x18, 0x02, 0x0c, 0x21, 0x09, 0xe4, 0xf4,
    0x22, 0x09, 0x30, 0x2b, 0x15, 0xd3, 0xf9, 0x12, 0xcd, 0xdf, 0xd3, 0xd7,
    0x30, 0x11, 0xe9, 0x02, 0x2e, 0x25, 0xf5, 0x0f, 0xda, 0xe4, 0x25, 0xea,
    0xd8, 0x0b, 0xd1, 0x36, 0xec, 0xef, 0x0c, 0xf7, 0xda, 0xd8, 0xef, 0x0b,
    0x18, 0x39, 0xe1, 0x05, 0xd5, 0x1e, 0xd3, 0xca, 0xdc, 0x0d, 0xcf, 0xd8,
    0x18, 0xe7, 0xde, 0x36, 0x1d, 0xd7, 0xca, 0x1f, 0xc9, 0xf2, 0x21, 0xe8,
    0xc5, 0xe9, 0xfa, 0xe6, 0xf1, 0xca, 0x2a, 0xed, 0x1a, 0xf7, 0xd2, 0x3b,
    0xdb, 0xfc, 0xc8, 0x0d, 0x0d, 0x24, 0xc8, 0xce, 0xdd, 0x1b, 0x2c, 0x00,
    0xd7, 0x00, 0x17, 0xd7, 0xfb, 0x12, 0x38, 0x15, 0xd9, 0xcc, 0x39, 0xf8,
    0x02, 0x25, 0x09, 0x08, 0xcf, 0x13, 0x0f, 0xe6, 0xda, 0xd5, 0xd8, 0xcb,
    0x23, 0xcb, 0xd1, 0x2d, 0xde, 0xe3, 0xec, 0xcc, 0x0b, 0x09, 0x08, 0x1e,
    0xf8, 0x0b, 0x1b, 0x38, 0x2e, 0x1b, 0x09, 0x05, 0x08, 0xef, 0x3b, 0x39,
    0x0e, 0xdb, 0xc7, 0xcb, 0x16, 0xfb, 0xf9, 0x0e, 0xd1, 0xf9, 0xcd, 0xc8,
    0x21, 0x26, 0x23, 0x14, 0x2e, 0xf3, 0xbb, 0x08, 0x1b, 0x30, 0xf2, 0x13,
    0x07, 0xf3, 0x06, 0xff, 0xfc, 0xf4, 0xe2, 0xf8, 0x30, 0x25, 0x50, 0xde,
    0x16, 0xdb, 0xe7, 0xef, 0x0f, 0x08, 0xd0, 0x13, 0x11, 0xe2, 0x3c, 0x36,
    0x16, 0x26, 0xd6, 0xf3, 0xcc, 0x38, 0xe6, 0xea, 0x03, 0x23, 0x06, 0x28,
    0x30, 0x0c, 0x68, 0xd2, 0x39, 0x35, 0x0c, 0xc9, 0xf2, 0x30, 0x21, 0x2d,
    0xe6, 0x3e, 0xfb, 0x30, 0xc8, 0xf2, 0xe4, 0xf0, 0x37, 0xf2, 0xfe, 0xfc,
    0x28, 0xd8, 0xd8, 0x14, 0xf7, 0xce, 0x26, 0xd0, 0x2b, 0xd8, 0xda, 0x31,
    0x04, 0xcf, 0x10, 0x27, 0xf9, 0xe6, 0x39, 0x26, 0x2b, 0xd5, 0xd3, 0xcf,
    0xe5, 0x22, 0x2a, 0xcd, 0xc9, 0xe5, 0xd8, 0xf6, 0x27, 0x3a, 0xff, 0xd9,
    0xd3, 0xff, 0xf9, 0x08, 0xe7, 0x02, 0x11, 0xc9, 0xd4, 0xe5, 0x15, 0xf2,
    0xea, 0xd8, 0xd3, 0xfc, 0x15, 0x03, 0xcc, 0x33, 0xfd, 0x2f, 0xe9, 0x34,
    0x1b, 0x0f, 0xd9, 0x13, 0xd3, 0xde, 0x00, 0x1a, 0x21, 0x22, 0xd2, 0xe3,
    0x24, 0x18, 0x15, 0xd7, 0xd1, 0x3a, 0x21, 0x03, 0xc9, 0x00, 0xda, 0xd1,
    0x1b, 0x3f, 0xdc, 0x0d, 0x0f, 0x2f, 0xec, 0xe5, 0x05, 0x12, 0x07, 0xea,
    0x09, 0xdb, 0xf7, 0xf5, 0x16, 0xff, 0x07, 0xe3, 0x03, 0x1c, 0xe0, 0x2e,
    0x37, 0x2b, 0xcc, 0xeb, 0xe3, 0x04, 0x0e, 0x25, 0x3e, 0xda, 0xd4, 0xe8,
    0xf8, 0x2e, 0xde, 0xf3, 0x04, 0xcf, 0x0f, 0xe6, 0xfc, 0xeb, 0x02, 0xe6,
    0x25, 0x33, 0xf2, 0xeb, 0xf9, 0x27, 0xf6, 0x3a, 0x2b, 0x06, 0x46, 0xde,
    0xf4, 0x09, 0x05, 0xe2, 0xfc, 0x40, 0x13, 0x32, 0x05, 0x11, 0x1b, 0xf2,
    0xff, 0xe3, 0x0f, 0xf3, 0x2b, 0xf1, 0xd5, 0xf0, 0x0a, 0x32, 0x01, 0xe2,
    0x20, 0x05, 0x11, 0xdb, 0xf1, 0xe3, 0xe8, 0x30, 0xf9, 0xfc, 0xd8, 0x3d,
    0xe7, 0xd5, 0x2a, 0x24, 0xe0, 0x11, 0x12, 0xe9, 0x06, 0xea, 0x17, 0x21,
    0xcc, 0xea, 0xf9, 0x0b, 0x2b, 0x37, 0x3d, 0x06, 0xfe, 0x27, 0x21, 0x07,
    0x08, 0x2f, 0xf2, 0x23, 0x36, 0xe4, 0xd9, 0xe0, 0xff, 0xff, 0xf0, 0x0d,
    0x38, 0x2f, 0xdc, 0xde, 0x19, 0xe5, 0x3a, 0xca, 0x0d, 0x13, 0xd6, 0x1b,
    0xf5, 0xe8, 0x1b, 0x0a, 0xfa, 0xf2, 0x13, 0x11, 0xd3, 0xd0, 0xd0, 0xfe,
    0x06, 0xd4, 0xda, 0xd9, 0xd3, 0xdb, 0xe2, 0xfc, 0x00, 0x23, 0xe5, 0xc6,
    0x0a, 0xe0, 0x26, 0xe3, 0xde, 0x39, 0x36, 0xd8, 0xfe, 0x3f, 0x03, 0x32,
    0xb8, 0xda, 0xd1, 0x24, 0xbd, 0x3f, 0x85, 0x0f, 0xe4, 0xf1, 0xd7, 0xf7,
    0x11, 0x45, 0xe7, 0x41, 0xef, 0xf6, 0xc9, 0x16, 0xfa, 0x2c, 0xed, 0x0b,
    0xdb, 0x00, 0xc5, 0xce, 0x36, 0xfe, 0x1a, 0xdc, 0xcd, 0xdb, 0x07, 0x00,
    0x2f, 0x2c, 0x39, 0x2b, 0x0d, 0xdb, 0xf2, 0x2f, 0x16, 0xfc, 0xfc, 0x39,
    0xda, 0x1c, 0xd6, 0x24, 0x0f, 0xd0, 0xe2, 0xed, 0x0e, 0xdb, 0xf6, 0xe2,
    0xee, 0xe4, 0xe2, 0x04, 0x12, 0x00, 0x00, 0xd7, 0xe3, 0x15, 0x13, 0xe6,
    0x04, 0x30, 0x1d, 0x2d, 0xf0, 0xcb, 0x01, 0x1b, 0xf0, 0xd2, 0x0d, 0x2e,
    0x26, 0xe4, 0x1a, 0x0a, 0x3d, 0xef, 0x04, 0x2d, 0x28, 0x31, 0x1c, 0xe1,
    0xc4, 0xc3, 0x31, 0x05, 0xe5, 0x0f, 0xd7, 0x20, 0x39, 0x07, 0x06, 0xe9,
    0xdc, 0xe8, 0x2e, 0xe8, 0x08, 0x35, 0xde, 0x01, 0x2e, 0xda, 0x2a, 0x29,
    0x2f, 0xe3, 0x1a, 0xfd, 0xfd, 0x01, 0xd5, 0xdb, 0xd2, 0x40, 0x00, 0xfc,
    0xff, 0xed, 0xb2, 0xde, 0xd2, 0x10, 0x02, 0x07, 0x1c, 0x47, 0xd7, 0x12,
    0x02, 0xcf, 0x06, 0x0d, 0x14, 0xc6, 0x1e, 0x1f, 0xfa, 0x15, 0xcd, 0x20,
    0xcb, 0x1f, 0xcb, 0x2e, 0x25, 0x0a, 0xfd, 0xca, 0x3a, 0xcd, 0xdd, 0xda,
    0x36, 0x22, 0x25, 0x10, 0x32, 0x12, 0xf4, 0xf4, 0x32, 0xf6, 0xca, 0x20,
    0xfc, 0x2d, 0x37, 0x31, 0x0e, 0xef, 0x18, 0xf9, 0x05, 0xd9, 0xd0, 0xf8,
    0xfe, 0x27, 0xe2, 0x33, 0x33, 0xc8, 0x34, 0x39, 0x04, 0x26, 0xcb, 0x2b,
    0xd1, 0xca, 0x35, 0xef, 0x0b, 0x03, 0xc8, 0x08, 0x02, 0xde, 0x27, 0x3a,
    0x2f, 0x33, 0x03, 0xf5, 0xfe, 0xc4, 0x09, 0xcf, 0x00, 0xe6, 0xde, 0xeb,
    0xd0, 0x0c, 0xfa, 0xfa, 0x3a, 0x1c, 0xd8, 0x35, 0x21, 0xd0, 0x0c, 0x16,
    0x0f, 0x01, 0xc3, 0x1e, 0xec, 0x33, 0x20, 0xe6, 0x27, 0x31, 0x19, 0xff,
    0xe2, 0xf8, 0x00, 0xca, 0xee, 0x23, 0xe4, 0xfa, 0x16, 0x26, 0xfc, 0xcc,
    0x02, 0x2d, 0xc9, 0xe8, 0xc5, 0xde, 0x17, 0x10, 0xfa, 0xe1, 0x16, 0x07,
    0x12, 0xea, 0x12, 0xfe, 0x05, 0x30, 0xcb, 0xe8, 0xe0, 0x1d, 0x43, 0xe1,
    0xd2, 0x3b, 0xe8, 0xfd, 0xf5, 0xda, 0x73, 0xe4, 0x01, 0x11, 0xf8, 0x28,
    0x2b, 0xe8, 0xeb, 0xd6, 0x32, 0x15, 0xfe, 0x27, 0xf5, 0xc0, 0x1a, 0xc9,
    0xdc, 0x0a, 0xe3, 0xe7, 0xca, 0xc5, 0x15, 0xea, 0x09, 0x18, 0x20, 0xf5,
    0xf9, 0xf8, 0x2e, 0x2e, 0x04, 0x1c, 0xfc, 0xdb, 0x32, 0xdf, 0xfa, 0xdd,
    0xc8, 0xdb, 0xef, 0x1b, 0xe1, 0xfd, 0x14, 0x1c, 0x02, 0x01, 0xcc, 0xcb,
    0x12, 0xee, 0x2d, 0x1a, 0xd6, 0x18, 0xc9, 0xeb, 0xf2, 0x23, 0x09, 0xf2,
    0xe8, 0xf5, 0x32, 0xc8, 0xeb, 0xfc, 0xce, 0xe1, 0x19, 0x1c, 0x30, 0xe9,
    0x28, 0x3e, 0x0f, 0xe7, 0x24, 0x38, 0x08, 0xd9, 0x40, 0x0b, 0x02, 0xd3,
    0x30, 0xe0, 0x11, 0x25, 0xed, 0x18, 0xa0, 0xc8, 0x02, 0xdb, 0xca, 0x0f,
    0xe0, 0x1b, 0xe1, 0x04, 0x32, 0x04, 0x38, 0x15, 0x0a, 0x27, 0x1b, 0xf0,
    0xfe, 0xf0, 0xe0, 0x02, 0x28, 0x0c, 0xf9, 0xfc, 0x09, 0x26, 0x2a, 0xd2,
    0x10, 0x39, 0xdb, 0x11, 0x15, 0x18, 0x0f, 0xcb, 0x35, 0x1b, 0xda, 0x33,
    0x1e, 0xca, 0xdd, 0x10, 0xdc, 0x21, 0x23, 0x32, 0xcc, 0xc6, 0xed, 0x18,
    0x38, 0xf6, 0x19, 0xd0, 0xd6, 0xda, 0x35, 0x1d, 0x2a, 0xdb, 0x15, 0xe4,
    0xd0, 0xfb, 0xc9, 0x2f, 0xcb, 0xea, 0xcf, 0xe9, 0xe5, 0xf1, 0x2f, 0x06,
    0xf0, 0x25, 0x26, 0xdc, 0x06, 0x2c, 0x21, 0xca, 0xda, 0x22, 0x20, 0xcc,
    0x0e, 0xff, 0x0c, 0x20, 0x2e, 0xe0, 0x25, 0xdb, 0xf1, 0xfb, 0xd5, 0xd2,
    0xf8, 0x2d, 0x21, 0xee, 0xef, 0x33, 0xd2, 0x3a, 0xe5, 0xe9, 0xe0, 0xd0,
    0x2e, 0xff, 0xd4, 0xe0, 0xdb, 0x19, 0xfe, 0x19, 0xce, 0x15, 0xd7, 0xf9,
    0x24, 0x1b, 0x0a, 0xf0, 0xc7, 0xf9, 0x11, 0xf0, 0xcb, 0x14, 0xd0, 0xc6,
    0x26, 0x20, 0xfc, 0x16, 0x13, 0x35, 0xef, 0x37, 0xf2, 0x13, 0x16, 0x29,
    0xe4, 0xe0, 0x17, 0x24, 0x1d, 0xe4, 0x13, 0x3a, 0xef, 0xcd, 0xfa, 0xdb,
    0xce, 0x14, 0x2e, 0xed, 0xe1, 0xe4, 0x18, 0xdf, 0xc6, 0xfb, 0xce, 0xe0,
    0x3a, 0xd0, 0xc8, 0xed, 0x2a, 0x28, 0x38, 0xca, 0xdd, 0xd3, 0xf5, 0x1f,
    0xc8, 0x35, 0x37, 0x2b, 0x37, 0xd4, 0xeb, 0x2c, 0xfc, 0x12, 0x06, 0xfa,
    0x13, 0xde, 0xf8, 0xf8, 0x15, 0x41, 0xec, 0x02, 0x3e, 0x06, 0x00, 0x35,
    0x08, 0xd6, 0xca, 0x43, 0x29, 0x3a, 0xd4, 0xcc, 0xf7, 0xf2, 0x3a, 0x04,
    0x41, 0x3b, 0x0a, 0xda, 0x16, 0x28, 0x1e, 0x27, 0xda, 0x15, 0xe8, 0xf3,
    0x15, 0xe8, 0xfb, 0xf4, 0xd6, 0x21, 0xf1, 0x02, 0xf5, 0x38, 0xee, 0xf1,
    0xed, 0x0d, 0xe5, 0xe6, 0xdf, 0x39, 0x15, 0xc7, 0xf0, 0xdc, 0x12, 0xd4,
    0xcc, 0xc5, 0xd2, 0x30, 0xec, 0xd9, 0x39, 0xf5, 0x38, 0x29, 0x2b, 0xed,
    0xe9, 0x09, 0xd2, 0xf5, 0x0d, 0x02, 0x24, 0x32, 0x13, 0x02, 0xfa, 0x22,
    0x35, 0x0a, 0x31, 0x2d, 0xf8, 0x39, 0x1d, 0x0b, 0xf5, 0xd7, 0xc7, 0x30,
    0x35, 0xfe, 0xf0, 0xfb, 0x12, 0x06, 0x2d, 0xdd, 0xdc, 0x08, 0xef, 0xdf,
    0x0d, 0x0d, 0xc5, 0xdb, 0xf0, 0x3d, 0xed, 0xd9, 0xfe, 0x15, 0xfa, 0x23,
    0xf6, 0x0b, 0x7b, 0x2b, 0x08, 0xcc, 0x06, 0x2a, 0xe6, 0xe3, 0x1d, 0x11,
    0x1b, 0xf7, 0xfd, 0xe1, 0xe0, 0xdc, 0xf8, 0xf8, 0x29, 0xc6, 0xcc, 0xfa,
    0xfe, 0x26, 0x07, 0xeb, 0x12, 0x22, 0xe3, 0x06, 0x1a, 0xdc, 0x18, 0x0f,
    0xeb, 0xda, 0xe1, 0xee, 0xd6, 0x09, 0xd5, 0x28, 0xe5, 0xd6, 0xdf, 0x16,
    0x1f, 0x27, 0xf3, 0xde, 0x2b, 0xce, 0x18, 0x13, 0x0d, 0xc6, 0xd5, 0x22,
    0xf7, 0x29, 0xd9, 0xdb, 0x14, 0xc8, 0x03, 0x0d, 0x26, 0x31, 0xf5, 0x31,
    0xd6, 0xf9, 0xf8, 0x31, 0x1a, 0xe0, 0x0e, 0x14, 0xf5, 0x08, 0xf5, 0x23,
    0xd6, 0x28, 0x06, 0x19, 0x23, 0xf4, 0x07, 0x34, 0x1a, 0xeb, 0xfc, 0xd2,
    0xf1, 0x34, 0xc7, 0x0d, 0xe2, 0xdf, 0x0d, 0xe5, 0x0d, 0x30, 0x02, 0xf9,
    0xed, 0x1a, 0xf4, 0x0e, 0xe0, 0x07, 0xd5, 0x28, 0x29, 0xda, 0xc9, 0x1f,
    0x10, 0x2a, 0x36, 0x05, 0x28, 0x2b, 0x38, 0xcb, 0x35, 0xeb, 0x3b, 0xeb,
    0xd7, 0xee, 0x13, 0xd0, 0xdd, 0xda, 0xf2, 0x01, 0x09, 0xf6, 0x28, 0xc7,
    0xdd, 0xea, 0x11, 0xf1, 0x2f, 0x03, 0x10, 0x36, 0x0a, 0xce, 0xc9, 0xf3,
    0xe1, 0x1a, 0x36, 0x36, 0xef, 0xf1, 0x09, 0xfb, 0xe8, 0xca, 0x17, 0x0a,
    0x0e, 0x00, 0xfb, 0x36, 0xff, 0xd9, 0x35, 0xff, 0xe9, 0xd0, 0xcb, 0xc6,
    0x0f, 0xff, 0xc5, 0xde, 0x20, 0xd9, 0xfb, 0x09, 0x39, 0x34, 0xcb, 0xd6,
    0xea, 0xe6, 0xf1, 0xc9, 0x39, 0x29, 0x10, 0xf0, 0xe7, 0x1b, 0xe1, 0x16,
    0x1e, 0xcf, 0xd1, 0x11, 0x06, 0x3c, 0xf9, 0x1f, 0xdd, 0xd9, 0x33, 0xea,
    0x3a, 0x1b, 0x2b, 0xf5, 0xd9, 0xe1, 0x10, 0xfe, 0xd6, 0x2d, 0x01, 0xe1,
    0x00, 0x17, 0xe8, 0x1a, 0x1e, 0xf8, 0x2c, 0x37, 0x0d, 0xed, 0x1b, 0xfc,
    0x0d, 0xd1, 0x41, 0xff, 0xf9, 0x07, 0x20, 0xe8, 0x07, 0xf8, 0xce, 0x1a,
    0x05, 0x3d, 0xfe, 0x18, 0xde, 0xeb, 0x10, 0x33, 0xd3, 0xf9, 0xf1, 0x2b,
    0x31, 0xfd, 0xc6, 0x1b, 0xdb, 0xe7, 0x11, 0xe8, 0x17, 0x00, 0xc8, 0xff,
    0xf7, 0xec, 0xda, 0xe8, 0xcd, 0x0f, 0xd5, 0xf8, 0x13, 0xc8, 0xdd, 0x22,
    0x29, 0x24, 0xcc, 0xdb, 0x38, 0xf7, 0xf7, 0x0a, 0x29, 0x16, 0x25, 0xe0,
    0x17, 0x0f, 0xcd, 0xd8, 0x26, 0x16, 0xec, 0x16, 0x16, 0x16, 0x33, 0x1a,
    0xe3, 0xe1, 0xf2, 0xd7, 0x15, 0xd5, 0x19, 0xcd, 0xda, 0xe2, 0xe1, 0x18,
    0xc6, 0x1e, 0xdd, 0x01, 0xe8, 0x16, 0x30, 0x0d, 0x1e, 0xdf, 0x0c, 0x2a,
    0xcf, 0x2b, 0xe4, 0x01, 0xe2, 0x38, 0x2a, 0xd8, 0xe7, 0x27, 0x2a, 0xd9,
    0x1f, 0xef, 0x06, 0xfd, 0xcd, 0x27, 0xcd, 0x06, 0xfe, 0x15, 0xff, 0x0d,
    0xd0, 0xd6, 0x29, 0xf4, 0xd5, 0x3a, 0xfc, 0xc5, 0x19, 0x46, 0x10, 0x1c,
    0xc9, 0xce, 0xf2, 0xeb, 0x13, 0x2d, 0xea, 0x16, 0xd6, 0x3d, 0xfe, 0x27,
    0xf5, 0xe0, 0xaf, 0xff, 0x15, 0x15, 0x04, 0x31, 0x07, 0x0b, 0xd4, 0xd6,
    0xcb, 0x01, 0xe8, 0xdd, 0x17, 0x34, 0xe2, 0x1d, 0x02, 0x1f, 0xce, 0xc5,
    0xf7, 0x2d, 0xfe, 0xea, 0xe7, 0x20, 0x1d, 0xc6, 0xd9, 0xc1, 0xee, 0x0f,
    0xf3, 0x10, 0x14, 0x06, 0xd9, 0xfa, 0x03, 0x03, 0xe0, 0x03, 0xee, 0x1c,
    0xd7, 0x12, 0xe1, 0x0f, 0xef, 0x01, 0x38, 0xfe, 0x28, 0xd9, 0x38, 0xf5,
    0x19, 0x13, 0xc5, 0xe3, 0xf6, 0xfb, 0x31, 0xdc, 0xde, 0x02, 0x2f, 0x07,
    0xcd, 0x06, 0xd1, 0xe0, 0xe6, 0xe8, 0x14, 0x28, 0x3e, 0x1f, 0x1e, 0xc6,
    0xf0, 0xe6, 0xd9, 0x23, 0x0d, 0xef, 0x21, 0x24, 0xfd, 0xf3, 0x2c, 0xf7,
    0xfb, 0x2e, 0x74, 0xe3, 0xea, 0xfa, 0x0d, 0xf1, 0x15, 0xd6, 0xdf, 0x3e,
    0x18, 0xff, 0x1d, 0x16, 0xdf, 0x24, 0x13, 0x13, 0xc6, 0x29, 0x32, 0xc9,
    0xe5, 0x15, 0xdb, 0xed, 0xeb, 0x35, 0x3f, 0x04, 0x1c, 0x32, 0x19, 0x1b,
    0xfe, 0x18, 0xd7, 0xf1, 0x10, 0xc8, 0xd2, 0x0e, 0xc8, 0xe8, 0xcf, 0x1c,
    0xed, 0x0d, 0x29, 0x33, 0x02, 0x0b, 0x18, 0xc5, 0xfd, 0xfd, 0xf5, 0xe3,
    0xe5, 0x28, 0x0f, 0xd4, 0xff, 0x19, 0x1a, 0xe6, 0xdf, 0x02, 0xc9, 0x2e,
    0xe7, 0x18, 0x07, 0xde, 0x17, 0xc5, 0x0f, 0x02, 0x32, 0xf0, 0xee, 0xd7,
    0x2d, 0x1f, 0xe1, 0xc9, 0xc8, 0x05, 0xd5, 0xf5, 0xc8, 0xed, 0xdb, 0x09,
    0x03, 0xff, 0x2a, 0x30, 0x13, 0xc5, 0xf6, 0xd3, 0x29, 0xfd, 0xd9, 0xda,
    0x0a, 0x08, 0x36, 0xf0, 0x06, 0x02, 0x1c, 0xca, 0x14, 0xd7, 0x1c, 0x1c,
    0xed, 0xe2, 0x20, 0xec, 0xf4, 0xce, 0xf6, 0x1c, 0xfc, 0x25, 0x40, 0xde,
    0xd7, 0x37, 0xef, 0x06, 0xd4, 0xea, 0xd2, 0x0b, 0x2c, 0x0d, 0xe5, 0xe0,
    0xdb, 0xcf, 0xed, 0x28, 0xee, 0xec, 0x0e, 0x09, 0xf6, 0xf9, 0x1a, 0xd1,
    0x03, 0x2b, 0xdf, 0x26, 0x18, 0xc7, 0xc8, 0x29, 0xf0, 0xf6, 0xcf, 0x05,
    0xdc, 0xd4, 0xee, 0xec, 0xcd, 0xe5, 0xe4, 0xd5, 0x1d, 0xe9, 0xd4, 0x22,
    0xdd, 0xee, 0xc7, 0x25, 0xf6, 0xf5, 0x2d, 0x0c, 0xcd, 0xd1, 0xd5, 0x23,
    0x1c, 0x1b, 0xfe, 0xd8, 0x11, 0x16, 0xf9, 0x36, 0x2f, 0xc3, 0xe7, 0xfc,
    0xdb, 0xf7, 0x20, 0xf9, 0x29, 0x1b, 0x11, 0x13, 0xfc, 0xdb, 0xd2, 0xf9,
    0xe4, 0x35, 0xc8, 0x29, 0x1e, 0x16, 0x22, 0xca, 0x1b, 0x13, 0xd6, 0x1a,
    0xcc, 0xec, 0xf7, 0x2f, 0x22, 0x11, 0x28, 0xcf, 0xef, 0x0e, 0x2a, 0x1e,
    0xe4, 0x33, 0xe6, 0xc9, 0x2f, 0x2e, 0xce, 0xf0, 0x10, 0x20, 0xef, 0xe8,
    0x26, 0xcf, 0x18, 0x25, 0x0b, 0xd3, 0xd2, 0x03, 0xe8, 0xf6, 0xf6, 0xdd,
    0x16, 0x00, 0x2f, 0x26, 0x34, 0x0e, 0x30, 0xe2, 0xf4, 0xdf, 0x0f, 0x05,
    0x2d, 0xc6, 0xe3, 0xcc, 0x0b, 0xf7, 0xdf, 0xe7, 0xcb, 0x13, 0x47, 0xdb,
    0xf9, 0x34, 0x18, 0x1e, 0x37, 0x1b, 0x3d, 0xea, 0x1d, 0x01, 0xcd, 0x0d,
    0xe6, 0xf9, 0xff, 0xff, 0x04, 0x00, 0x00, 0x00, 0x00, 0x01, 0x00, 0x00,
    0xef, 0xff, 0xff, 0xff, 0x1d, 0x00, 0x00, 0x00, 0xff, 0xff, 0xff, 0xff,
    0x00, 0x00, 0x00, 0x00, 0x00, 0x00, 0x00, 0x00, 0xf7, 0xff, 0xff, 0xff,
    0x00, 0x00, 0x00, 0x00, 0xe2, 0xff, 0xff, 0xff, 0x1a, 0x00, 0x00, 0x00,
    0x00, 0x00, 0x00, 0x00, 0x00, 0x00, 0x00, 0x00, 0x1e, 0x00, 0x00, 0x00,
    0x15, 0x00, 0x00, 0x00, 0x1e, 0x00, 0x00, 0x00, 0x15, 0x00, 0x00, 0x00,
    0x1b, 0x00, 0x00, 0x00, 0x00, 0x00, 0x00, 0x00, 0x12, 0x00, 0x00, 0x00,
    0x0a, 0x00, 0x00, 0x00, 0xe3, 0xff, 0xff, 0xff, 0xf4, 0xff, 0xff, 0xff,
    0x08, 0x00, 0x00, 0x00, 0x00, 0x00, 0x00, 0x00, 0x00, 0x00, 0x00, 0x00,
    0xfb, 0xff, 0xff, 0xff, 0xf7, 0xff, 0xff, 0xff, 0x11, 0x00, 0x00, 0x00,
    0xf0, 0xff, 0xff, 0xff, 0x00, 0x00, 0x00, 0x00, 0x16, 0x00, 0x00, 0x00,
    0x0b, 0x00, 0x00, 0x00, 0x00, 0x00, 0x00, 0x00, 0xf5, 0xff, 0xff, 0xff,
    0x00, 0x00, 0x00, 0x00, 0x00, 0x00, 0x00, 0x00, 0x00, 0x00, 0x00, 0x00,
    0x17, 0x00, 0x00, 0x00, 0x00, 0x00, 0x00, 0x00, 0x22, 0x00, 0x00, 0x00,
    0x1c, 0x00, 0x00, 0x00, 0x00, 0x00, 0x00, 0x00, 0xeb, 0xff, 0xff, 0xff,
    0x0a, 0x00, 0x00, 0x00, 0x01, 0x00, 0x00, 0x00, 0x0d, 0x00, 0x00, 0x00,
    0xfc, 0xff, 0xff, 0xff, 0x18, 0x00, 0x00, 0x00, 0x19, 0x00, 0x00, 0x00,
    0xeb, 0xff, 0xff, 0xff, 0x00, 0x00, 0x00, 0x00, 0x00, 0x00, 0x00, 0x00,
    0x1c, 0x00, 0x00, 0x00, 0xf1, 0xff, 0xff, 0xff, 0x00, 0x00, 0x00, 0x00,
    0x17, 0x00, 0x00, 0x00, 0xf2, 0xff, 0xff, 0xff, 0x00, 0x00, 0x00, 0x00,
    0x00, 0x00, 0x00, 0x00, 0x15, 0x00, 0x00, 0x00, 0x00, 0x00, 0x00, 0x00,
    0xf9, 0xff, 0xff, 0xff, 0x0a, 0x00, 0x00, 0x00, 0xf2, 0xff, 0xff, 0xff,
    0x02, 0x00, 0x00, 0x00, 0xf2, 0xfa, 0xff, 0xff, 0x04, 0x00, 0x00, 0x00,
    0x00, 0x05, 0x00, 0x00, 0x27, 0x53, 0x2d, 0x2b, 0xc1, 0x56, 0xe8, 0x04,
    0xce, 0xe5, 0xaa, 0x40, 0x63, 0x16, 0xec, 0xcf, 0x03, 0xf8, 0xe2, 0x20,
    0x26, 0x0f, 0x16, 0xbd, 0xce, 0xcd, 0x3e, 0x57, 0xe2, 0x5d, 0xa9, 0xd4,
    0x56, 0xf1, 0xba, 0xac, 0x38, 0x31, 0x5b, 0x02, 0x25, 0x49, 0x44, 0x71,
    0x11, 0xb4, 0xfe, 0xe6, 0x1d, 0xa1, 0x3b, 0xb2, 0x5e, 0x0c, 0xf2, 0xdf,
    0xc1, 0xb2, 0x5e, 0x50, 0xe1, 0x42, 0x56, 0x3d, 0xf7, 0xe0, 0x66, 0x45,
    0x32, 0x0c, 0x35, 0xcb, 0x24, 0x2f, 0x0a, 0x59, 0x30, 0xb2, 0xc5, 0x56,
    0xeb, 0x15, 0x68, 0xd9, 0x35, 0x21, 0x5c, 0xfb, 0xae, 0xc8, 0xea, 0x1b,
    0x19, 0x35, 0x3a, 0xbc, 0xff, 0x16, 0xf1, 0x49, 0x22, 0xf4, 0xee, 0x2e,
    0xa8, 0x08, 0x4b, 0xca, 0x5e, 0xeb, 0xec, 0x18, 0x11, 0xf1, 0xb9, 0x05,
    0xdb, 0x4b, 0xca, 0x12, 0x42, 0x3f, 0xe0, 0x0a, 0x04, 0x50, 0xb7, 0x4b,
    0xaf, 0x47, 0x1d, 0x52, 0x49, 0x29, 0xa1, 0xdd, 0xc5, 0x10, 0x3f, 0x66,
    0x31, 0x58, 0x34, 0xbc, 0x3e, 0x18, 0xe7, 0xaf, 0xec, 0xb8, 0x5a, 0x49,
    0xd1, 0x56, 0x36, 0x16, 0x42, 0xe8, 0x44, 0x46, 0xf6, 0xee, 0xe2, 0xc1,
    0xc6, 0x19, 0x62, 0x67, 0xbb, 0x4c, 0xea, 0x3a, 0x45, 0xac, 0x0c, 0x48,
    0xa8, 0x50, 0x1d, 0xfe, 0xe5, 0xac, 0x4f, 0xc1, 0xca, 0xf6, 0xfa, 0xe6,
    0xcf, 0xd3, 0x24, 0x1b, 0xf2, 0x1b, 0xda, 0x34, 0x0f, 0xe4, 0x20, 0x59,
    0xe2, 0xd4, 0xd4, 0x16, 0x0e, 0xd5, 0x07, 0x5e, 0x1b, 0x36, 0x50, 0xec,
    0x1f, 0x17, 0x55, 0xae, 0xe7, 0x2d, 0xc3, 0x37, 0x26, 0xd9, 0x48, 0x3f,
    0xc6, 0x1c, 0xad, 0x33, 0x02, 0xf9, 0xcc, 0x07, 0x54, 0xcd, 0xf6, 0xe9,
    0x33, 0x27, 0xfa, 0x2f, 0xda, 0xf8, 0x19, 0x66, 0x11, 0xb4, 0x3b, 0xab,
    0x4b, 0xe5, 0x63, 0xb4, 0xa1, 0x3f, 0xe2, 0xbc, 0x2d, 0x03, 0x07, 0xa1,
    0xd4, 0x0f, 0x12, 0x48, 0x12, 0x4d, 0x56, 0xd9, 0x5d, 0x1d, 0xbe, 0x23,
    0xed, 0x13, 0x3c, 0x27, 0x07, 0xd6, 0xc3, 0x11, 0x02, 0x02, 0x12, 0x36,
    0x40, 0xd6, 0xdb, 0xed, 0x22, 0xf4, 0x0c, 0xad, 0x43, 0xf6, 0x3d, 0x5d,
    0xc6, 0x44, 0x3b, 0x13, 0x0e, 0xa2, 0x4c, 0xa8, 0x23, 0x3a, 0x59, 0x06,
    0x3b, 0x10, 0x0e, 0xe2, 0x44, 0xe6, 0x69, 0xd0, 0x5e, 0xf2, 0x09, 0xd1,
    0xe0, 0xf9, 0x27, 0xed, 0x1c, 0xbf, 0x05, 0xe4, 0x1b, 0x12, 0x06, 0xdf,
    0xb6, 0x60, 0xe9, 0x2a, 0x09, 0x4b, 0x1d, 0x65, 0x67, 0xcd, 0x0b, 0x45,
    0xbd, 0xc3, 0xb0, 0xc5, 0x3b, 0x34, 0x06, 0x39, 0xef, 0xd6, 0xb9, 0x36,
    0x31, 0xd6, 0x07, 0xd7, 0xb2, 0xb0, 0x5f, 0x0b, 0x3c, 0xbd, 0xf5, 0x31,
    0x3b, 0x17, 0x62, 0x73, 0x24, 0x02, 0x68, 0xc1, 0x26, 0xff, 0xf7, 0x3f,
    0xc4, 0x20, 0xc0, 0x2e, 0xce, 0x29, 0x4c, 0xf9, 0xf4, 0x0c, 0xa4, 0x42,
    0x17, 0xb7, 0xcf, 0x33, 0xd6, 0x2f, 0xc6, 0x4f, 0xf5, 0x03, 0xe9, 0xb6,
    0xc8, 0x38, 0xcd, 0xbf, 0xc2, 0x13, 0x25, 0x2f, 0xf0, 0xc0, 0x0c, 0x0d,
    0x53, 0x51, 0xdf, 0x05, 0x09, 0xf1, 0x05, 0xe7, 0xb1, 0xdb, 0xc7, 0x50,
    0xb3, 0xfb, 0x43, 0xd3, 0xc3, 0xde, 0x01, 0x1c, 0xbf, 0xdf, 0x21, 0x4c,
    0x23, 0xbb, 0x30, 0x4e, 0x0a, 0xd2, 0x55, 0xeb, 0x2c, 0x24, 0x11, 0xf1,
    0x3f, 0xd9, 0xa6, 0x13, 0xe7, 0x41, 0xf9, 0x23, 0x47, 0x2e, 0x20, 0xd2,
    0x06, 0x27, 0x0f, 0xee, 0xf1, 0x68, 0x37, 0xca, 0xea, 0x00, 0x4a, 0x17,
    0xc9, 0x1a, 0xe1, 0x25, 0xde, 0xee, 0xd4, 0xe5, 0xec, 0xf6, 0x52, 0xfc,
    0x26, 0xb7, 0xb1, 0x81, 0xbd, 0xb2, 0x67, 0x2a, 0xe7, 0xea, 0x3c, 0x2e,
    0xbf, 0x32, 0x1c, 0x08, 0xbd, 0xd3, 0xc3, 0xca, 0xf2, 0xdd, 0x10, 0x17,
    0x46, 0x46, 0x10, 0xb4, 0xcf, 0xb5, 0xc2, 0xc2, 0xe2, 0xcc, 0x17, 0xf1,
    0x32, 0x3c, 0x69, 0x35, 0x5f, 0xe0, 0x0a, 0x37, 0xc9, 0xa7, 0xd4, 0x36,
    0x16, 0xd1, 0xe8, 0x41, 0x2e, 0xd5, 0x0d, 0xa5, 0xa7, 0xf1, 0xef, 0xac,
    0xf0, 0x11, 0xff, 0xea, 0xde, 0x46, 0xf7, 0x57, 0x0f, 0xc4, 0x3c, 0x29,
    0xdf, 0xe8, 0x4b, 0x4b, 0x23, 0x57, 0x40, 0xef, 0x59, 0x41, 0x68, 0xd5,
    0xdc, 0xf5, 0x5b, 0x5e, 0xfd, 0x67, 0xa8, 0x4f, 0xe5, 0x5e, 0xa6, 0xcf,
    0xf2, 0xf3, 0x0a, 0x43, 0x17, 0xed, 0x67, 0xf6, 0x02, 0x6d, 0xff, 0x5c,
    0x2d, 0x45, 0xf9, 0xbe, 0x23, 0x49, 0x11, 0x32, 0xca, 0x07, 0x39, 0xcd,
    0xae, 0x16, 0x35, 0xe2, 0x33, 0xbc, 0xac, 0x36, 0xc3, 0xf6, 0xb2, 0x04,
    0xec, 0x0e, 0x3a, 0xcf, 0xb4, 0xb2, 0x26, 0xef, 0x31, 0x2d, 0xfb, 0xb0,
    0xd6, 0xf6, 0x5e, 0xff, 0xef, 0x5f, 0x0d, 0x1c, 0xf7, 0xdd, 0x4b, 0xce,
    0x21, 0xe8, 0xd1, 0x29, 0xe5, 0xbc, 0xec, 0x0a, 0x73, 0xad, 0x5f, 0xe8,
    0x50, 0xbd, 0x07, 0x47, 0xb7, 0xb6, 0xa7, 0xcf, 0x4f, 0x15, 0x77, 0xc0,
    0xa9, 0x3b, 0x4a, 0xd2, 0xd0, 0xc3, 0xe0, 0x3d, 0x01, 0xce, 0x13, 0x4d,
    0x02, 0xdb, 0xe4, 0x13, 0x66, 0x45, 0xdb, 0x53, 0xc8, 0xd7, 0xf7, 0xf7,
    0x16, 0xab, 0x1f, 0x44, 0xdb, 0xa6, 0xc5, 0xc5, 0xb8, 0x28, 0xc8, 0xf5,
    0xfa, 0xe4, 0xb2, 0x39, 0x0d, 0xae, 0xeb, 0x41, 0xf7, 0x29, 0x0f, 0xe0,
    0x5f, 0x3f, 0xe1, 0xca, 0x01, 0x54, 0x5c, 0x48, 0x0d, 0x66, 0xd2, 0xc5,
    0xfd, 0x28, 0x1f, 0xe5, 0xc1, 0x30, 0x4c, 0x2a, 0xa9, 0x42, 0xc9, 0xd8,
    0xff, 0x1b, 0x1b, 0x54, 0xd2, 0x54, 0x15, 0x11, 0xd6, 0x33, 0xec, 0x53,
    0x30, 0x53, 0x23, 0xad, 0x30, 0x0c, 0xbc, 0x27, 0x1e, 0x3f, 0x18, 0xe9,
    0xa6, 0x3a, 0x11, 0x2d, 0x11, 0x0b, 0xea, 0xde, 0x1d, 0x32, 0x39, 0x34,
    0x3f, 0x05, 0x53, 0x22, 0xd4, 0xf9, 0xe9, 0xaa, 0xef, 0x14, 0x39, 0x02,
    0x4d, 0x07, 0x27, 0xad, 0xac, 0x58, 0x53, 0xce, 0xf8, 0xd6, 0x50, 0xc5,
    0x45, 0xeb, 0x30, 0x5e, 0x4d, 0xec, 0x2b, 0xc5, 0x4d, 0x2a, 0xb4, 0x05,
    0xb7, 0xfc, 0x4e, 0xe0, 0x05, 0x2b, 0x41, 0xab, 0xe7, 0x00, 0x5c, 0x3c,
    0x4f, 0xd4, 0xac, 0x5e, 0x28, 0xd2, 0xef, 0x4f, 0xe0, 0x18, 0x58, 0x45,
    0x39, 0xae, 0xb8, 0x1e, 0x29, 0x47, 0xd5, 0x19, 0x47, 0xa0, 0x40, 0x34,
    0x54, 0xe6, 0xc5, 0xca, 0x15, 0x60, 0xe7, 0x46, 0x55, 0xfc, 0x22, 0xce,
    0xcf, 0x09, 0x50, 0xd0, 0x0c, 0x61, 0x28, 0xd5, 0x4d, 0xf5, 0xda, 0x0c,
    0x9e, 0x24, 0x48, 0x1e, 0x69, 0x13, 0xe8, 0x0a, 0x46, 0xa6, 0x33, 0x3b,
    0xcd, 0x5f, 0xaa, 0xc5, 0x1a, 0xdf, 0x2e, 0x01, 0x35, 0x3f, 0xd8, 0x2d,
    0x57, 0xe0, 0x26, 0xb4, 0xfa, 0x1e, 0xa2, 0xc7, 0x0f, 0x19, 0x30, 0x5b,
    0xd5, 0xdd, 0xfd, 0xc7, 0xd9, 0x03, 0x0a, 0xb3, 0x24, 0x4d, 0x15, 0xe5,
    0x2a, 0x1e, 0x52, 0xf0, 0xad, 0x07, 0xb7, 0x04, 0xfb, 0xe6, 0xfc, 0x06,
    0x39, 0x07, 0x59, 0x28, 0x49, 0xfb, 0xdb, 0x22, 0x46, 0xc7, 0xfb, 0x61,
    0xe2, 0xf4, 0x1b, 0xfc, 0x02, 0x0e, 0x42, 0x0d, 0xdb, 0xd8, 0x1c, 0xf8,
    0xe8, 0xfa, 0xa7, 0xe9, 0xbe, 0x19, 0xe5, 0xfc, 0xf8, 0xb6, 0x0b, 0xd5,
    0x6f, 0xe7, 0xe2, 0xf9, 0x45, 0x61, 0xff, 0x73, 0x05, 0xee, 0xc0, 0xf6,
    0x06, 0xba, 0xc0, 0xb4, 0x31, 0xc1, 0xa7, 0x20, 0x28, 0x71, 0xfa, 0xb0,
    0x09, 0xdb, 0x4b, 0xca, 0x6a, 0x57, 0xb4, 0xef, 0x00, 0x2c, 0x74, 0xf7,
    0x5a, 0xb7, 0x00, 0xeb, 0xbb, 0x20, 0xcc, 0xfe, 0xb6, 0xb4, 0xef, 0x25,
    0x0a, 0xa7, 0x07, 0x20, 0x40, 0x3c, 0xaf, 0xc3, 0x29, 0x3f, 0xc2, 0xf0,
    0x04, 0x59, 0x23, 0xff, 0x55, 0x05, 0xd2, 0x00, 0xe7, 0xce, 0x56, 0x34,
    0xf8, 0xfa, 0x50, 0x11, 0x18, 0x0a, 0xee, 0xe9, 0x50, 0x63, 0x20, 0x1b,
    0x1d, 0xd5, 0x38, 0xf2, 0x4e, 0xde, 0x4c, 0x47, 0xbe, 0x1f, 0x10, 0x63,
    0xfe, 0xd8, 0x3c, 0xfa, 0xf9, 0xde, 0x5d, 0xaa, 0xe9, 0x5e, 0xd2, 0xe4,
    0x2a, 0x54, 0x17, 0x6d, 0xc0, 0x52, 0xec, 0xed, 0x27, 0x61, 0xe6, 0xb0,
    0x1d, 0x15, 0xcd, 0x5d, 0xb4, 0xf5, 0x42, 0x5e, 0x4d, 0x0f, 0xaf, 0xe5,
    0x57, 0xc3, 0x67, 0x44, 0x42, 0x57, 0xe9, 0x3a, 0x38, 0xb4, 0xc4, 0x50,
    0x27, 0xbe, 0x32, 0x07, 0xf6, 0x42, 0xf7, 0xf2, 0x3a, 0x1e, 0xaf, 0xdf,
    0x09, 0x4a, 0x08, 0xb1, 0x20, 0x06, 0x69, 0xc2, 0x19, 0xab, 0x4d, 0xb6,
    0xdb, 0xac, 0x20, 0x2c, 0xb0, 0xc1, 0x04, 0xf6, 0x46, 0xc2, 0x49, 0xd7,
    0xaa, 0x24, 0x60, 0x27, 0x57, 0xf3, 0x18, 0x49, 0xab, 0xfb, 0xf6, 0x60,
    0x59, 0x5c, 0x0b, 0xc5, 0xda, 0x1a, 0xd1, 0x58, 0xcd, 0xbb, 0x13, 0xfb,
    0xfa, 0xef, 0x23, 0xe7, 0xa9, 0xf2, 0x6c, 0x3a, 0xf5, 0x0d, 0xea, 0xdf,
    0xc7, 0xfc, 0x27, 0x59, 0x61, 0xdc, 0xbf, 0x70, 0x43, 0x50, 0x5a, 0x03,
    0x2c, 0x4c, 0x1b, 0x20, 0x58, 0x61, 0x24, 0x0a, 0xa5, 0x56, 0xb5, 0xe0,
    0xa7, 0x51, 0x6b, 0x53, 0x2d, 0x19, 0x2f, 0x19, 0x0e, 0xda, 0xa5, 0x16,
    0x07, 0x0f, 0xe9, 0xb6, 0x24, 0xd3, 0xac, 0x1a, 0xec, 0x07, 0x2d, 0xcb,
    0x39, 0x73, 0x2d, 0xc4, 0xfb, 0x14, 0xbf, 0x01, 0xad, 0x10, 0x51, 0xfa,
    0x5b, 0x3f, 0x36, 0xc4, 0x21, 0x0f, 0xde, 0xcd, 0x24, 0x5b, 0x5c, 0xcd,
    0xec, 0x66, 0x35, 0xe0, 0xe4, 0xd5, 0x6d, 0x24, 0xa7, 0xa0, 0xa7, 0xfc,
    0x31, 0x05, 0x09, 0xed, 0xa3, 0x46, 0xfe, 0xc2, 0xa7, 0xc3, 0xf2, 0x44,
    0x00, 0x00, 0x06, 0x00, 0x08, 0x00, 0x04, 0x00, 0x06, 0x00, 0x00, 0x00,
    0x04, 0x00, 0x00, 0x00, 0x50, 0x00, 0x00, 0x00, 0x26, 0x00, 0x00, 0x00,
    0x22, 0x00, 0x00, 0x00, 0x2c, 0x00, 0x00, 0x00, 0x22, 0x00, 0x00, 0x00,
    0x2e, 0x00, 0x00, 0x00, 0x27, 0x00, 0x00, 0x00, 0x3f, 0x00, 0x00, 0x00,
    0x38, 0x00, 0x00, 0x00, 0x32, 0x00, 0x00, 0x00, 0x25, 0x00, 0x00, 0x00,
    0x35, 0x00, 0x00, 0x00, 0x1c, 0x00, 0x00, 0x00, 0xfe, 0xff, 0xff, 0xff,
    0x1b, 0x00, 0x00, 0x00, 0x39, 0x00, 0x00, 0x00, 0x33, 0x00, 0x00, 0x00,
    0x34, 0x00, 0x00, 0x00, 0x19, 0x00, 0x00, 0x00, 0x35, 0x00, 0x00, 0x00,
    0x31, 0x00, 0x00, 0x00, 0x50, 0xff, 0xff, 0xff, 0x54, 0xff, 0xff, 0xff,
    0x0f, 0x00, 0x00, 0x00, 0x4d, 0x4c, 0x49, 0x52, 0x20, 0x43, 0x6f, 0x6e,
    0x76, 0x65, 0x72, 0x74, 0x65, 0x64, 0x2e, 0x00, 0x01, 0x00, 0x00, 0x00,
    0x14, 0x00, 0x00, 0x00, 0x00, 0x00, 0x0e, 0x00, 0x18, 0x00, 0x14, 0x00,
    0x10, 0x00, 0x0c, 0x00, 0x08, 0x00, 0x04, 0x00, 0x0e, 0x00, 0x00, 0x00,
    0x14, 0x00, 0x00, 0x00, 0x1c, 0x00, 0x00, 0x00, 0xe8, 0x01, 0x00, 0x00,
    0xec, 0x01, 0x00, 0x00, 0xf0, 0x01, 0x00, 0x00, 0x04, 0x00, 0x00, 0x00,
    0x6d, 0x61, 0x69, 0x6e, 0x00, 0x00, 0x00, 0x00, 0x08, 0x00, 0x00, 0x00,
    0xb0, 0x01, 0x00, 0x00, 0x60, 0x01, 0x00, 0x00, 0x14, 0x01, 0x00, 0x00,
    0xd8, 0x00, 0x00, 0x00, 0x9c, 0x00, 0x00, 0x00, 0x60, 0x00, 0x00, 0x00,
    0x24, 0x00, 0x00, 0x00, 0x04, 0x00, 0x00, 0x00, 0x7a, 0xfe, 0xff, 0xff,
    0x08, 0x00, 0x00, 0x00, 0x0c, 0x00, 0x00, 0x00, 0x01, 0x00, 0x00, 0x00,
    0x14, 0x00, 0x00, 0x00, 0x01, 0x00, 0x00, 0x00, 0x13, 0x00, 0x00, 0x00,
    0xe6, 0xfe, 0xff, 0xff, 0x18, 0x00, 0x00, 0x00, 0x00, 0x00, 0x00, 0x08,
    0x14, 0x00, 0x00, 0x00, 0x18, 0x00, 0x00, 0x00, 0x01, 0x00, 0x00, 0x00,
    0x04, 0x00, 0x04, 0x00, 0x04, 0x00, 0x00, 0x00, 0x01, 0x00, 0x00, 0x00,
    0x13, 0x00, 0x00, 0x00, 0x03, 0x00, 0x00, 0x00, 0x12, 0x00, 0x00, 0x00,
    0x02, 0x00, 0x00, 0x00, 0x01, 0x00, 0x00, 0x00, 0x1e, 0xff, 0xff, 0xff,
    0x14, 0x00, 0x00, 0x00, 0x00, 0x00, 0x00, 0x08, 0x14, 0x00, 0x00, 0x00,
    0x18, 0x00, 0x00, 0x00, 0x01, 0x00, 0x00, 0x00, 0x0e, 0xff, 0xff, 0xff,
    0x00, 0x00, 0x00, 0x01, 0x01, 0x00, 0x00, 0x00, 0x12, 0x00, 0x00, 0x00,
    0x03, 0x00, 0x00, 0x00, 0x11, 0x00, 0x00, 0x00, 0x04, 0x00, 0x00, 0x00,
    0x03, 0x00, 0x00, 0x00, 0x56, 0xff, 0xff, 0xff, 0x14, 0x00, 0x00, 0x00,
    0x00, 0x00, 0x00, 0x08, 0x14, 0x00, 0x00, 0x00, 0x18, 0x00, 0x00, 0x00,
    0x01, 0x00, 0x00, 0x00, 0x46, 0xff, 0xff, 0xff, 0x00, 0x00, 0x00, 0x01,
    0x01, 0x00, 0x00, 0x00, 0x11, 0x00, 0x00, 0x00, 0x03, 0x00, 0x00, 0x00,
    0x10, 0x00, 0x00, 0x00, 0x06, 0x00, 0x00, 0x00, 0x05, 0x00, 0x00, 0x00,
    0x8e, 0xff, 0xff, 0xff, 0x14, 0x00, 0x00, 0x00, 0x00, 0x00, 0x00, 0x08,
    0x14, 0x00, 0x00, 0x00, 0x18, 0x00, 0x00, 0x00, 0x01, 0x00, 0x00, 0x00,
    0x7e, 0xff, 0xff, 0xff, 0x00, 0x00, 0x00, 0x01, 0x01, 0x00, 0x00, 0x00,
    0x10, 0x00, 0x00, 0x00, 0x03, 0x00, 0x00, 0x00, 0x0f, 0x00, 0x00, 0x00,
    0x08, 0x00, 0x00, 0x00, 0x07, 0x00, 0x00, 0x00, 0xc6, 0xff, 0xff, 0xff,
    0x14, 0x00, 0x00, 0x00, 0x00, 0x00, 0x00, 0x08, 0x14, 0x00, 0x00, 0x00,
    0x18, 0x00, 0x00, 0x00, 0x01, 0x00, 0x00, 0x00, 0xb6, 0xff, 0xff, 0xff,
    0x00, 0x00, 0x00, 0x01, 0x01, 0x00, 0x00, 0x00, 0x0f, 0x00, 0x00, 0x00,
    0x03, 0x00, 0x00, 0x00, 0x0e, 0x00, 0x00, 0x00, 0x0a, 0x00, 0x00, 0x00,
    0x09, 0x00, 0x00, 0x00, 0x00, 0x00, 0x0e, 0x00, 0x1a, 0x00, 0x14, 0x00,
    0x10, 0x00, 0x0c, 0x00, 0x0b, 0x00, 0x04, 0x00, 0x0e, 0x00, 0x00, 0x00,
    0x1c, 0x00, 0x00, 0x00, 0x00, 0x00, 0x00, 0x08, 0x1c, 0x00, 0x00, 0x00,
    0x20, 0x00, 0x00, 0x00, 0x01, 0x00, 0x00, 0x00, 0x00, 0x00, 0x06, 0x00,
    0x08, 0x00, 0x07, 0x00, 0x06, 0x00, 0x00, 0x00, 0x00, 0x00, 0x00, 0x01,
    0x01, 0x00, 0x00, 0x00, 0x0e, 0x00, 0x00, 0x00, 0x03, 0x00, 0x00, 0x00,
    0x0d, 0x00, 0x00, 0x00, 0x0c, 0x00, 0x00, 0x00, 0x0b, 0x00, 0x00, 0x00,
    0x00, 0x00, 0x0a, 0x00, 0x0c, 0x00, 0x00, 0x00, 0x08, 0x00, 0x04, 0x00,
    0x0a, 0x00, 0x00, 0x00, 0x08, 0x00, 0x00, 0x00, 0x0c, 0x00, 0x00, 0x00,
    0x01, 0x00, 0x00, 0x00, 0x0d, 0x00, 0x00, 0x00, 0x01, 0x00, 0x00, 0x00,
    0x00, 0x00, 0x00, 0x00, 0x01, 0x00, 0x00, 0x00, 0x14, 0x00, 0x00, 0x00,
    0x01, 0x00, 0x00, 0x00, 0x00, 0x00, 0x00, 0x00, 0x15, 0x00, 0x00, 0x00,
    0x38, 0x09, 0x00, 0x00, 0xc0, 0x08, 0x00, 0x00, 0x5c, 0x08, 0x00, 0x00,
    0xf8, 0x07, 0x00, 0x00, 0x94, 0x07, 0x00, 0x00, 0x30, 0x07, 0x00, 0x00,
    0xcc, 0x06, 0x00, 0x00, 0x68, 0x06, 0x00, 0x00, 0x04, 0x06, 0x00, 0x00,
    0xa0, 0x05, 0x00, 0x00, 0x3c, 0x05, 0x00, 0x00, 0xd8, 0x04, 0x00, 0x00,
    0x74, 0x04, 0x00, 0x00, 0x10, 0x04, 0x00, 0x00, 0x6c, 0x03, 0x00, 0x00,
    0xc0, 0x02, 0x00, 0x00, 0x14, 0x02, 0x00, 0x00, 0x68, 0x01, 0x00, 0x00,
    0xbc, 0x00, 0x00, 0x00, 0x60, 0x00, 0x00, 0x00, 0x04, 0x00, 0x00, 0x00,
    0x32, 0xf7, 0xff, 0xff, 0x00, 0x00, 0x00, 0x01, 0x14, 0x00, 0x00, 0x00,
    0x30, 0x00, 0x00, 0x00, 0x15, 0x00, 0x00, 0x00, 0x00, 0x00, 0x00, 0x03,
    0x34, 0x00, 0x00, 0x00, 0x1c, 0xf7, 0xff, 0xff, 0x08, 0x00, 0x00, 0x00,
    0x10, 0x00, 0x00, 0x00, 0x01, 0x00, 0x00, 0x00, 0x00, 0x00, 0x00, 0x00,
    0x00, 0x00, 0x00, 0x00, 0x01, 0x00, 0x00, 0x00, 0xa8, 0x91, 0x75, 0x3e,
    0x08, 0x00, 0x00, 0x00, 0x49, 0x64, 0x65, 0x6e, 0x74, 0x69, 0x74, 0x79,
    0x00, 0x00, 0x00, 0x00, 0x02, 0x00, 0x00, 0x00, 0x01, 0x00, 0x00, 0x00,
    0x14, 0x00, 0x00, 0x00, 0x8a, 0xf7, 0xff, 0xff, 0x00, 0x00, 0x00, 0x01,
    0x14, 0x00, 0x00, 0x00, 0x30, 0x00, 0x00, 0x00, 0x14, 0x00, 0x00, 0x00,
    0x00, 0x00, 0x00, 0x09, 0x34, 0x00, 0x00, 0x00, 0x74, 0xf7, 0xff, 0xff,
    0x08, 0x00, 0x00, 0x00, 0x10, 0x00, 0x00, 0x00, 0x01, 0x00, 0x00, 0x00,
    0x80, 0xff, 0xff, 0xff, 0xff, 0xff, 0xff, 0xff, 0x01, 0x00, 0x00, 0x00,
    0xa8, 0x91, 0x75, 0x3e, 0x09, 0x00, 0x00, 0x00, 0x49, 0x64, 0x65, 0x6e,
    0x74, 0x69, 0x74, 0x79, 0x31, 0x00, 0x00, 0x00, 0x02, 0x00, 0x00, 0x00,
    0x01, 0x00, 0x00, 0x00, 0x14, 0x00, 0x00, 0x00, 0xe2, 0xf7, 0xff, 0xff,
    0x00, 0x00, 0x00, 0x01, 0x14, 0x00, 0x00, 0x00, 0x30, 0x00, 0x00, 0x00,
    0x13, 0x00, 0x00, 0x00, 0x00, 0x00, 0x00, 0x09, 0x84, 0x00, 0x00, 0x00,
    0xcc, 0xf7, 0xff, 0xff, 0x08, 0x00, 0x00, 0x00, 0x10, 0x00, 0x00, 0x00,
    0x01, 0x00, 0x00, 0x00, 0x80, 0xff, 0xff, 0xff, 0xff, 0xff, 0xff, 0xff,
    0x01, 0x00, 0x00, 0x00, 0x0e, 0x26, 0x97, 0x3e, 0x58, 0x00, 0x00, 0x00,
    0x66, 0x75, 0x6e, 0x63, 0x74, 0x69, 0x6f, 0x6e, 0x61, 0x6c, 0x5f, 0x31,
    0x2f, 0x64, 0x65, 0x6e, 0x73, 0x65, 0x5f, 0x33, 0x5f, 0x31, 0x2f, 0x4d,
    0x61, 0x74, 0x4d, 0x75, 0x6c, 0x3b, 0x66, 0x75, 0x6e, 0x63, 0x74, 0x69,
    0x6f, 0x6e, 0x61, 0x6c, 0x5f, 0x31, 0x2f, 0x64, 0x65, 0x6e, 0x73, 0x65,
    0x5f, 0x33, 0x5f, 0x31, 0x2f, 0x52, 0x65, 0x6c, 0x75, 0x3b, 0x66, 0x75,
    0x6e, 0x63, 0x74, 0x69, 0x6f, 0x6e, 0x61, 0x6c, 0x5f, 0x31, 0x2f, 0x64,
    0x65, 0x6e, 0x73, 0x65, 0x5f, 0x33, 0x5f, 0x31, 0x2f, 0x42, 0x69, 0x61,
    0x73, 0x41, 0x64, 0x64, 0x00, 0x00, 0x00, 0x00, 0x02, 0x00, 0x00, 0x00,
    0x01, 0x00, 0x00, 0x00, 0x40, 0x00, 0x00, 0x00, 0x8a, 0xf8, 0xff, 0xff,
    0x00, 0x00, 0x00, 0x01, 0x14, 0x00, 0x00, 0x00, 0x30, 0x00, 0x00, 0x00,
    0x12, 0x00, 0x00, 0x00, 0x00, 0x00, 0x00, 0x09, 0x84, 0x00, 0x00, 0x00,
    0x74, 0xf8, 0xff, 0xff, 0x08, 0x00, 0x00, 0x00, 0x10, 0x00, 0x00, 0x00,
    0x01, 0x00, 0x00, 0x00, 0x80, 0xff, 0xff, 0xff, 0xff, 0xff, 0xff, 0xff,
    0x01, 0x00, 0x00, 0x00, 0x54, 0x5d, 0xa9, 0x3e, 0x58, 0x00, 0x00, 0x00,
    0x66, 0x75, 0x6e, 0x63, 0x74, 0x69, 0x6f, 0x6e, 0x61, 0x6c, 0x5f, 0x31,
    0x2f, 0x64, 0x65, 0x6e, 0x73, 0x65, 0x5f, 0x32, 0x5f, 0x31, 0x2f, 0x4d,
    0x61, 0x74, 0x4d, 0x75, 0x6c, 0x3b, 0x66, 0x75, 0x6e, 0x63, 0x74, 0x69,
    0x6f, 0x6e, 0x61, 0x6c, 0x5f, 0x31, 0x2f, 0x64, 0x65, 0x6e, 0x73, 0x65,
    0x5f, 0x32, 0x5f, 0x31, 0x2f, 0x52, 0x65, 0x6c, 0x75, 0x3b, 0x66, 0x75,
    0x6e, 0x63, 0x74, 0x69, 0x6f, 0x6e, 0x61, 0x6c, 0x5f, 0x31, 0x2f, 0x64,
    0x65, 0x6e, 0x73, 0x65, 0x5f, 0x32, 0x5f, 0x31, 0x2f, 0x42, 0x69, 0x61,
    0x73, 0x41, 0x64, 0x64, 0x00, 0x00, 0x00, 0x00, 0x02, 0x00, 0x00, 0x00,
    0x01, 0x00, 0x00, 0x00, 0x20, 0x00, 0x00, 0x00, 0x32, 0xf9, 0xff, 0xff,
    0x00, 0x00, 0x00, 0x01, 0x14, 0x00, 0x00, 0x00, 0x34, 0x00, 0x00, 0x00,
    0x11, 0x00, 0x00, 0x00, 0x00, 0x00, 0x00, 0x09, 0x84, 0x00, 0x00, 0x00,
    0x1c, 0xf9, 0xff, 0xff, 0x08, 0x00, 0x00, 0x00, 0x14, 0x00, 0x00, 0x00,
    0x01, 0x00, 0x00, 0x00, 0x80, 0xff, 0xff, 0xff, 0xff, 0xff, 0xff, 0xff,
    0x00, 0x00, 0x00, 0x00, 0x01, 0x00, 0x00, 0x00, 0x53, 0xdc, 0xff, 0x3e,
    0x55, 0x00, 0x00, 0x00, 0x66, 0x75, 0x6e, 0x63, 0x74, 0x69, 0x6f, 0x6e,
    0x61, 0x6c, 0x5f, 0x31, 0x2f, 0x6c, 0x61, 0x74, 0x65, 0x6e, 0x74, 0x5f,
    0x31, 0x2f, 0x4d, 0x61, 0x74, 0x4d, 0x75, 0x6c, 0x3b, 0x66, 0x75, 0x6e,
    0x63, 0x74, 0x69, 0x6f, 0x6e, 0x61, 0x6c, 0x5f, 0x31, 0x2f, 0x6c, 0x61,
    0x74, 0x65, 0x6e, 0x74, 0x5f, 0x31, 0x2f, 0x52, 0x65, 0x6c, 0x75, 0x3b,
    0x66, 0x75, 0x6e, 0x63, 0x74, 0x69, 0x6f, 0x6e, 0x61, 0x6c, 0x5f, 0x31,
    0x2f, 0x6c, 0x61, 0x74, 0x65, 0x6e, 0x74, 0x5f, 0x31, 0x2f, 0x42, 0x69,
    0x61, 0x73, 0x41, 0x64, 0x64, 0x00, 0x00, 0x00, 0x02, 0x00, 0x00, 0x00,
    0x01, 0x00, 0x00, 0x00, 0x08, 0x00, 0x00, 0x00, 0xda, 0xf9, 0xff, 0xff,
    0x00, 0x00, 0x00, 0x01, 0x14, 0x00, 0x00, 0x00, 0x30, 0x00, 0x00, 0x00,
    0x10, 0x00, 0x00, 0x00, 0x00, 0x00, 0x00, 0x09, 0x84, 0x00, 0x00, 0x00,
    0xc4, 0xf9, 0xff, 0xff, 0x08, 0x00, 0x00, 0x00, 0x10, 0x00, 0x00, 0x00,
    0x01, 0x00, 0x00, 0x00, 0x80, 0xff, 0xff, 0xff, 0xff, 0xff, 0xff, 0xff,
    0x01, 0x00, 0x00, 0x00, 0x65, 0xf7, 0x10, 0x3f, 0x58, 0x00, 0x00, 0x00,
    0x66, 0x75, 0x6e, 0x63, 0x74, 0x69, 0x6f, 0x6e, 0x61, 0x6c, 0x5f, 0x31,
    0x2f, 0x64, 0x65, 0x6e, 0x73, 0x65, 0x5f, 0x31, 0x5f, 0x32, 0x2f, 0x4d,
    0x61, 0x74, 0x4d, 0x75, 0x6c, 0x3b, 0x66, 0x75, 0x6e, 0x63, 0x74, 0x69,
    0x6f, 0x6e, 0x61, 0x6c, 0x5f, 0x31, 0x2f, 0x64, 0x65, 0x6e, 0x73, 0x65,
    0x5f, 0x31, 0x5f, 0x32, 0x2f, 0x52, 0x65, 0x6c, 0x75, 0x3b, 0x66, 0x75,
    0x6e, 0x63, 0x74, 0x69, 0x6f, 0x6e, 0x61, 0x6c, 0x5f, 0x31, 0x2f, 0x64,
    0x65, 0x6e, 0x73, 0x65, 0x5f, 0x31, 0x5f, 0x32, 0x2f, 0x42, 0x69, 0x61,
    0x73, 0x41, 0x64, 0x64, 0x00, 0x00, 0x00, 0x00, 0x02, 0x00, 0x00, 0x00,
    0x01, 0x00, 0x00, 0x00, 0x20, 0x00, 0x00, 0x00, 0x82, 0xfa, 0xff, 0xff,
    0x00, 0x00, 0x00, 0x01, 0x14, 0x00, 0x00, 0x00, 0x30, 0x00, 0x00, 0x00,
    0x0f, 0x00, 0x00, 0x00, 0x00, 0x00, 0x00, 0x09, 0x7c, 0x00, 0x00, 0x00,
    0x6c, 0xfa, 0xff, 0xff, 0x08, 0x00, 0x00, 0x00, 0x10, 0x00, 0x00, 0x00,
    0x01, 0x00, 0x00, 0x00, 0x80, 0xff, 0xff, 0xff, 0xff, 0xff, 0xff, 0xff,
    0x01, 0x00, 0x00, 0x00, 0xef, 0x10, 0xff, 0x3e, 0x52, 0x00, 0x00, 0x00,
    0x66, 0x75, 0x6e, 0x63, 0x74, 0x69, 0x6f, 0x6e, 0x61, 0x6c, 0x5f, 0x31,
    0x2f, 0x64, 0x65, 0x6e, 0x73, 0x65, 0x5f, 0x31, 0x2f, 0x4d, 0x61, 0x74,
    0x4d, 0x75, 0x6c, 0x3b, 0x66, 0x75, 0x6e, 0x63, 0x74, 0x69, 0x6f, 0x6e,
    0x61, 0x6c, 0x5f, 0x31, 0x2f, 0x64, 0x65, 0x6e, 0x73, 0x65, 0x5f, 0x31,
    0x2f, 0x52, 0x65, 0x6c, 0x75, 0x3b, 0x66, 0x75, 0x6e, 0x63, 0x74, 0x69,
    0x6f, 0x6e, 0x61, 0x6c, 0x5f, 0x31, 0x2f, 0x64, 0x65, 0x6e, 0x73, 0x65,
    0x5f, 0x31, 0x2f, 0x42, 0x69, 0x61, 0x73, 0x41, 0x64, 0x64, 0x00, 0x00,
    0x02, 0x00, 0x00, 0x00, 0x01, 0x00, 0x00, 0x00, 0x40, 0x00, 0x00, 0x00,
    0x22, 0xfb, 0xff, 0xff, 0x00, 0x00, 0x00, 0x01, 0x14, 0x00, 0x00, 0x00,
    0x34, 0x00, 0x00, 0x00, 0x0e, 0x00, 0x00, 0x00, 0x00, 0x00, 0x00, 0x09,
    0x3c, 0x00, 0x00, 0x00, 0x0c, 0xfb, 0xff, 0xff, 0x08, 0x00, 0x00, 0x00,
    0x14, 0x00, 0x00, 0x00, 0x01, 0x00, 0x00, 0x00, 0x80, 0xff, 0xff, 0xff,
    0xff, 0xff, 0xff, 0xff, 0x00, 0x00, 0x00, 0x00, 0x01, 0x00, 0x00, 0x00,
    0x27, 0x9b, 0x92, 0x3e, 0x0c, 0x00, 0x00, 0x00, 0x74, 0x66, 0x6c, 0x2e,
    0x71, 0x75, 0x61, 0x6e, 0x74, 0x69, 0x7a, 0x65, 0x00, 0x00, 0x00, 0x00,
    0x02, 0x00, 0x00, 0x00, 0x01, 0x00, 0x00, 0x00, 0x14, 0x00, 0x00, 0x00,
    0x82, 0xfb, 0xff, 0xff, 0x00, 0x00, 0x00, 0x01, 0x14, 0x00, 0x00, 0x00,
    0x30, 0x00, 0x00, 0x00, 0x0d, 0x00, 0x00, 0x00, 0x00, 0x00, 0x00, 0x09,
    0x3c, 0x00, 0x00, 0x00, 0x6c, 0xfb, 0xff, 0xff, 0x08, 0x00, 0x00, 0x00,
    0x10, 0x00, 0x00, 0x00, 0x01, 0x00, 0x00, 0x00, 0x00, 0x00, 0x00, 0x00,
    0x00, 0x00, 0x00, 0x00, 0x01, 0x00, 0x00, 0x00, 0x4a, 0xad, 0x24, 0x3b,
    0x13, 0x00, 0x00, 0x00, 0x74, 0x66, 0x6c, 0x2e, 0x70, 0x73, 0x65, 0x75,
    0x64, 0x6f, 0x5f, 0x71, 0x63, 0x6f, 0x6e, 0x73, 0x74, 0x31, 0x31, 0x00,
    0x02, 0x00, 0x00, 0x00, 0x40, 0x00, 0x00, 0x00, 0x14, 0x00, 0x00, 0x00,
    0xe2, 0xfb, 0xff, 0xff, 0x00, 0x00, 0x00, 0x01, 0x14, 0x00, 0x00, 0x00,
    0x34, 0x00, 0x00, 0x00, 0x0c, 0x00, 0x00, 0x00, 0x00, 0x00, 0x00, 0x02,
    0x40, 0x00, 0x00, 0x00, 0xcc, 0xfb, 0xff, 0xff, 0x08, 0x00, 0x00, 0x00,
    0x14, 0x00, 0x00, 0x00, 0x01, 0x00, 0x00, 0x00, 0x00, 0x00, 0x00, 0x00,
    0x00, 0x00, 0x00, 0x00, 0x00, 0x00, 0x00, 0x00, 0x01, 0x00, 0x00, 0x00,
    0x44, 0x9d, 0x3c, 0x3a, 0x13, 0x00, 0x00, 0x00, 0x74, 0x66, 0x6c, 0x2e,
    0x70, 0x73, 0x65, 0x75, 0x64, 0x6f, 0x5f, 0x71, 0x63, 0x6f, 0x6e, 0x73,
    0x74, 0x31, 0x30, 0x00, 0x01, 0x00, 0x00, 0x00, 0x40, 0x00, 0x00, 0x00,
    0x42, 0xfc, 0xff, 0xff, 0x00, 0x00, 0x00, 0x01, 0x14, 0x00, 0x00, 0x00,
    0x30, 0x00, 0x00, 0x00, 0x0b, 0x00, 0x00, 0x00, 0x00, 0x00, 0x00, 0x09,
    0x3c, 0x00, 0x00, 0x00, 0x2c, 0xfc, 0xff, 0xff, 0x08, 0x00, 0x00, 0x00,
    0x10, 0x00, 0x00, 0x00, 0x01, 0x00, 0x00, 0x00, 0x00, 0x00, 0x00, 0x00,
    0x00, 0x00, 0x00, 0x00, 0x01, 0x00, 0x00, 0x00, 0xfc, 0xdd, 0x46, 0x3b,
    0x12, 0x00, 0x00, 0x00, 0x74, 0x66, 0x6c, 0x2e, 0x70, 0x73, 0x65, 0x75,
    0x64, 0x6f, 0x5f, 0x71, 0x63, 0x6f, 0x6e, 0x73, 0x74, 0x39, 0x00, 0x00,
    0x02, 0x00, 0x00, 0x00, 0x20, 0x00, 0x00, 0x00, 0x40, 0x00, 0x00, 0x00,
    0xa2, 0xfc, 0xff, 0xff, 0x00, 0x00, 0x00, 0x01, 0x14, 0x00, 0x00, 0x00,
    0x34, 0x00, 0x00, 0x00, 0x0a, 0x00, 0x00, 0x00, 0x00, 0x00, 0x00, 0x02,
    0x40, 0x00, 0x00, 0x00, 0x8c, 0xfc, 0xff, 0xff, 0x08, 0x00, 0x00, 0x00,
    0x14, 0x00, 0x00, 0x00, 0x01, 0x00, 0x00, 0x00, 0x00, 0x00, 0x00, 0x00,
    0x00, 0x00, 0x00, 0x00, 0x00, 0x00, 0x00, 0x00, 0x01, 0x00, 0x00, 0x00,
    0x46, 0x24, 0xc6, 0x3a, 0x12, 0x00, 0x00, 0x00, 0x74, 0x66, 0x6c, 0x2e,
    0x70, 0x73, 0x65, 0x75, 0x64, 0x6f, 0x5f, 0x71, 0x63, 0x6f, 0x6e, 0x73,
    0x74, 0x38, 0x00, 0x00, 0x01, 0x00, 0x00, 0x00, 0x20, 0x00, 0x00, 0x00,
    0x02, 0xfd, 0xff, 0xff, 0x00, 0x00, 0x00, 0x01, 0x14, 0x00, 0x00, 0x00,
    0x30, 0x00, 0x00, 0x00, 0x09, 0x00, 0x00, 0x00, 0x00, 0x00, 0x00, 0x09,
    0x3c, 0x00, 0x00, 0x00, 0xec, 0xfc, 0xff, 0xff, 0x08, 0x00, 0x00, 0x00,
    0x10, 0x00, 0x00, 0x00, 0x01, 0x00, 0x00, 0x00, 0x00, 0x00, 0x00, 0x00,
    0x00, 0x00, 0x00, 0x00, 0x01, 0x00, 0x00, 0x00, 0x7b, 0xdc, 0x4c, 0x3b,
    0x12, 0x00, 0x00, 0x00, 0x74, 0x66, 0x6c, 0x2e, 0x70, 0x73, 0x65, 0x75,
    0x64, 0x6f, 0x5f, 0x71, 0x63, 0x6f, 0x6e, 0x73, 0x74, 0x37, 0x00, 0x00,
    0x02, 0x00, 0x00, 0x00, 0x08, 0x00, 0x00, 0x00, 0x20, 0x00, 0x00, 0x00,
    0x62, 0xfd, 0xff, 0xff, 0x00, 0x00, 0x00, 0x01, 0x14, 0x00, 0x00, 0x00,
    0x34, 0x00, 0x00, 0x00, 0x08, 0x00, 0x00, 0x00, 0x00, 0x00, 0x00, 0x02,
    0x40, 0x00, 0x00, 0x00, 0x4c, 0xfd, 0xff, 0xff, 0x08, 0x00, 0x00, 0x00,
    0x14, 0x00, 0x00, 0x00, 0x01, 0x00, 0x00, 0x00, 0x00, 0x00, 0x00, 0x00,
    0x00, 0x00, 0x00, 0x00, 0x00, 0x00, 0x00, 0x00, 0x01, 0x00, 0x00, 0x00,
    0xfd, 0x03, 0xe8, 0x3a, 0x12, 0x00, 0x00, 0x00, 0x74, 0x66, 0x6c, 0x2e,
    0x70, 0x73, 0x65, 0x75, 0x64, 0x6f, 0x5f, 0x71, 0x63, 0x6f, 0x6e, 0x73,
    0x74, 0x36, 0x00, 0x00, 0x01, 0x00, 0x00, 0x00, 0x08, 0x00, 0x00, 0x00,
    0xc2, 0xfd, 0xff, 0xff, 0x00, 0x00, 0x00, 0x01, 0x14, 0x00, 0x00, 0x00,
    0x30, 0x00, 0x00, 0x00, 0x07, 0x00, 0x00, 0x00, 0x00, 0x00, 0x00, 0x09,
    0x3c, 0x00, 0x00, 0x00, 0xac, 0xfd, 0xff, 0xff, 0x08, 0x00, 0x00, 0x00,
    0x10, 0x00, 0x00, 0x00, 0x01, 0x00, 0x00, 0x00, 0x00, 0x00, 0x00, 0x00,
    0x00, 0x00, 0x00, 0x00, 0x01, 0x00, 0x00, 0x00, 0x5b, 0xe9, 0x66, 0x3b,
    0x12, 0x00, 0x00, 0x00, 0x74, 0x66, 0x6c, 0x2e, 0x70, 0x73, 0x65, 0x75,
    0x64, 0x6f, 0x5f, 0x71, 0x63, 0x6f, 0x6e, 0x73, 0x74, 0x35, 0x00, 0x00,
    0x02, 0x00, 0x00, 0x00, 0x20, 0x00, 0x00, 0x00, 0x08, 0x00, 0x00, 0x00,
    0x22, 0xfe, 0xff, 0xff, 0x00, 0x00, 0x00, 0x01, 0x14, 0x00, 0x00, 0x00,
    0x34, 0x00, 0x00, 0x00, 0x06, 0x00, 0x00, 0x00, 0x00, 0x00, 0x00, 0x02,
    0x40, 0x00, 0x00, 0x00, 0x0c, 0xfe, 0xff, 0xff, 0x08, 0x00, 0x00, 0x00,
    0x14, 0x00, 0x00, 0x00, 0x01, 0x00, 0x00, 0x00, 0x00, 0x00, 0x00, 0x00,
    0x00, 0x00, 0x00, 0x00, 0x00, 0x00, 0x00, 0x00, 0x01, 0x00, 0x00, 0x00,
    0x2d, 0xc9, 0xe6, 0x3a, 0x12, 0x00, 0x00, 0x00, 0x74, 0x66, 0x6c, 0x2e,
    0x70, 0x73, 0x65, 0x75, 0x64, 0x6f, 0x5f, 0x71, 0x63, 0x6f, 0x6e, 0x73,
    0x74, 0x34, 0x00, 0x00, 0x01, 0x00, 0x00, 0x00, 0x20, 0x00, 0x00, 0x00,
    0x82, 0xfe, 0xff, 0xff, 0x00, 0x00, 0x00, 0x01, 0x14, 0x00, 0x00, 0x00,
    0x30, 0x00, 0x00, 0x00, 0x05, 0x00, 0x00, 0x00, 0x00, 0x00, 0x00, 0x09,
    0x3c, 0x00, 0x00, 0x00, 0x6c, 0xfe, 0xff, 0xff, 0x08, 0x00, 0x00, 0x00,
    0x10, 0x00, 0x00, 0x00, 0x01, 0x00, 0x00, 0x00, 0x00, 0x00, 0x00, 0x00,
    0x00, 0x00, 0x00, 0x00, 0x01, 0x00, 0x00, 0x00, 0x2e, 0xd3, 0x8a, 0x3b,
    0x12, 0x00, 0x00, 0x00, 0x74, 0x66, 0x6c, 0x2e, 0x70, 0x73, 0x65, 0x75,
    0x64, 0x6f, 0x5f, 0x71, 0x63, 0x6f, 0x6e, 0x73, 0x74, 0x33, 0x00, 0x00,
    0x02, 0x00, 0x00, 0x00, 0x40, 0x00, 0x00, 0x00, 0x20, 0x00, 0x00, 0x00,
    0xe2, 0xfe, 0xff, 0xff, 0x00, 0x00, 0x00, 0x01, 0x14, 0x00, 0x00, 0x00,
    0x34, 0x00, 0x00, 0x00, 0x04, 0x00, 0x00, 0x00, 0x00, 0x00, 0x00, 0x02,
    0x40, 0x00, 0x00, 0x00, 0xcc, 0xfe, 0xff, 0xff, 0x08, 0x00, 0x00, 0x00,
    0x14, 0x00, 0x00, 0x00, 0x01, 0x00, 0x00, 0x00, 0x00, 0x00, 0x00, 0x00,
    0x00, 0x00, 0x00, 0x00, 0x00, 0x00, 0x00, 0x00, 0x01, 0x00, 0x00, 0x00,
    0x0b, 0xb0, 0xb7, 0x3a, 0x12, 0x00, 0x00, 0x00, 0x74, 0x66, 0x6c, 0x2e,
    0x70, 0x73, 0x65, 0x75, 0x64, 0x6f, 0x5f, 0x71, 0x63, 0x6f, 0x6e, 0x73,
    0x74, 0x32, 0x00, 0x00, 0x01, 0x00, 0x00, 0x00, 0x40, 0x00, 0x00, 0x00,
    0x42, 0xff, 0xff, 0xff, 0x00, 0x00, 0x00, 0x01, 0x14, 0x00, 0x00, 0x00,
    0x30, 0x00, 0x00, 0x00, 0x03, 0x00, 0x00, 0x00, 0x00, 0x00, 0x00, 0x09,
    0x3c, 0x00, 0x00, 0x00, 0x2c, 0xff, 0xff, 0xff, 0x08, 0x00, 0x00, 0x00,
    0x10, 0x00, 0x00, 0x00, 0x01, 0x00, 0x00, 0x00, 0x00, 0x00, 0x00, 0x00,
    0x00, 0x00, 0x00, 0x00, 0x01, 0x00, 0x00, 0x00, 0x2d, 0xe1, 0x31, 0x3b,
    0x12, 0x00, 0x00, 0x00, 0x74, 0x66, 0x6c, 0x2e, 0x70, 0x73, 0x65, 0x75,
    0x64, 0x6f, 0x5f, 0x71, 0x63, 0x6f, 0x6e, 0x73, 0x74, 0x31, 0x00, 0x00,
    0x02, 0x00, 0x00, 0x00, 0x14, 0x00, 0x00, 0x00, 0x40, 0x00, 0x00, 0x00,
    0xa2, 0xff, 0xff, 0xff, 0x00, 0x00, 0x00, 0x01, 0x14, 0x00, 0x00, 0x00,
    0x30, 0x00, 0x00, 0x00, 0x02, 0x00, 0x00, 0x00, 0x00, 0x00, 0x00, 0x02,
    0x3c, 0x00, 0x00, 0x00, 0x8c, 0xff, 0xff, 0xff, 0x08, 0x00, 0x00, 0x00,
    0x10, 0x00, 0x00, 0x00, 0x01, 0x00, 0x00, 0x00, 0x00, 0x00, 0x00, 0x00,
    0x00, 0x00, 0x00, 0x00, 0x01, 0x00, 0x00, 0x00, 0x85, 0x0c, 0x52, 0x3a,
    0x11, 0x00, 0x00, 0x00, 0x74, 0x66, 0x6c, 0x2e, 0x70, 0x73, 0x65, 0x75,
    0x64, 0x6f, 0x5f, 0x71, 0x63, 0x6f, 0x6e, 0x73, 0x74, 0x00, 0x00, 0x00,
    0x01, 0x00, 0x00, 0x00, 0x14, 0x00, 0x00, 0x00, 0x00, 0x00, 0x16, 0x00,
    0x1c, 0x00, 0x18, 0x00, 0x17, 0x00, 0x10, 0x00, 0x0c, 0x00, 0x08, 0x00,
    0x00, 0x00, 0x00, 0x00, 0x00, 0x00, 0x07, 0x00, 0x16, 0x00, 0x00, 0x00,
    0x00, 0x00, 0x00, 0x01, 0x20, 0x00, 0x00, 0x00, 0x40, 0x00, 0x00, 0x00,
    0x01, 0x00, 0x00, 0x00, 0x00, 0x00, 0x00, 0x03, 0x3c, 0x00, 0x00, 0x00,
    0x0c, 0x00, 0x0c, 0x00, 0x00, 0x00, 0x00, 0x00, 0x08, 0x00, 0x04, 0x00,
    0x0c, 0x00, 0x00, 0x00, 0x08, 0x00, 0x00, 0x00, 0x14, 0x00, 0x00, 0x00,
    0x01, 0x00, 0x00, 0x00, 0x00, 0x00, 0x00, 0x00, 0x00, 0x00, 0x00, 0x00,
    0x00, 0x00, 0x00, 0x00, 0x01, 0x00, 0x00, 0x00, 0x27, 0x9b, 0x92, 0x3e,
    0x01, 0x00, 0x00, 0x00, 0x78, 0x00, 0x00, 0x00, 0x02, 0x00, 0x00, 0x00,
    0x01, 0x00, 0x00, 0x00, 0x14, 0x00, 0x00, 0x00, 0x02, 0x00, 0x00, 0x00,
    0x30, 0x00, 0x00, 0x00, 0x10, 0x00, 0x00, 0x00, 0x0c, 0x00, 0x10, 0x00,
    0x0f, 0x00, 0x00, 0x00, 0x08, 0x00, 0x04, 0x00, 0x0c, 0x00, 0x00, 0x00,
    0x09, 0x00, 0x00, 0x00, 0x04, 0x00, 0x00, 0x00, 0x00, 0x00, 0x00, 0x09,
    0x0c, 0x00, 0x0c, 0x00, 0x0b, 0x00, 0x00, 0x00, 0x00, 0x00, 0x04, 0x00,
    0x0c, 0x00, 0x00, 0x00, 0x72, 0x00, 0x00, 0x00, 0x00, 0x00, 0x00, 0x72,
};

#endif // AE_MODEL_DATA_H
